{
  "version": "1.0",
  "truncation": null,
  "padding": null,
  "added_tokens": [
    {
      "id": 0,
      "content": "<s>",
      "single_word": false,
      "lstrip": false,
      "rstrip": false,
      "normalized": false,
      "special": true
    },
    {
      "id": 1,
      "content": "<pad>",
      "single_word": false,
      "lstrip": false,
      "rstrip": false,
      "normalized": false,
      "special": true
    },
    {
      "id": 2,
      "content": "</s>",
      "single_word": false,
      "lstrip": false,
      "rstrip": false,
      "normalized": false,
      "special": true
    },
    {
      "id": 3,
      "content": "<unk>",
      "single_word": false,
      "lstrip": false,
      "rstrip": false,
      "normalized": false,
      "special": true
    },
    {
      "id": 4,
      "content": "<mask>",
      "single_word": false,
      "lstrip": false,
      "rstrip": false,
      "normalized": false,
      "special": true
    }
  ],
  "normalizer": null,
  "pre_tokenizer": {
    "type": "ByteLevel",
    "add_prefix_space": false,
    "trim_offsets": true,
    "use_regex": true
  },
  "post_processor": {
    "type": "RobertaProcessing",
    "sep": [
      "</s>",
      2
    ],
    "cls": [
      "<s>",
      0
    ],
    "trim_offsets": true,
    "add_prefix_space": true
  },
  "decoder": {
    "type": "ByteLevel",
    "add_prefix_space": true,
    "trim_offsets": true,
    "use_regex": true
  },
  "model": {
    "type": "BPE",
    "dropout": null,
    "unk_token": null,
    "continuing_subword_prefix": "",
    "end_of_word_suffix": "",
    "fuse_unk": false,
    "byte_fallback": false,
    "ignore_merges": false,
    "vocab": {
      "<s>": 0,
      "<pad>": 1,
      "</s>": 2,
      "<unk>": 3,
      "<mask>": 4,
      "!": 5,
      "\"": 6,
      "#": 7,
      "$": 8,
      "%": 9,
      "&": 10,
      "'": 11,
      "(": 12,
      ")": 13,
      "*": 14,
      "+": 15,
      ",": 16,
      "-": 17,
      ".": 18,
      "/": 19,
      "0": 20,
      "1": 21,
      "2": 22,
      "3": 23,
      "4": 24,
      "5": 25,
      "6": 26,
      "7": 27,
      "8": 28,
      "9": 29,
      ":": 30,
      ";": 31,
      "<": 32,
      "=": 33,
      ">": 34,
      "?": 35,
      "@": 36,
      "A": 37,
      "B": 38,
      "C": 39,
      "D": 40,
      "E": 41,
      "F": 42,
      "G": 43,
      "H": 44,
      "I": 45,
      "J": 46,
      "K": 47,
      "L": 48,
      "M": 49,
      "N": 50,
      "O": 51,
      "P": 52,
      "Q": 53,
      "R": 54,
      "S": 55,
      "T": 56,
      "U": 57,
      "V": 58,
      "W": 59,
      "X": 60,
      "Y": 61,
      "Z": 62,
      "[": 63,
      "\\": 64,
      "]": 65,
      "^": 66,
      "_": 67,
      "`": 68,
      "a": 69,
      "b": 70,
      "c": 71,
      "d": 72,
      "e": 73,
      "f": 74,
      "g": 75,
      "h": 76,
      "i": 77,
      "j": 78,
      "k": 79,
      "l": 80,
      "m": 81,
      "n": 82,
      "o": 83,
      "p": 84,
      "q": 85,
      "r": 86,
      "s": 87,
      "t": 88,
      "u": 89,
      "v": 90,
      "w": 91,
      "x": 92,
      "y": 93,
      "z": 94,
      "{": 95,
      "|": 96,
      "}": 97,
      "~": 98,
      "¡": 99,
      "¢": 100,
      "£": 101,
      "¤": 102,
      "¥": 103,
      "¦": 104,
      "§": 105,
      "¨": 106,
      "©": 107,
      "ª": 108,
      "«": 109,
      "¬": 110,
      "®": 111,
      "¯": 112,
      "°": 113,
      "±": 114,
      "²": 115,
      "³": 116,
      "´": 117,
      "µ": 118,
      "¶": 119,
      "·": 120,
      "¸": 121,
      "¹": 122,
      "º": 123,
      "»": 124,
      "¼": 125,
      "½": 126,
      "¾": 127,
      "¿": 128,
      "À": 129,
      "Á": 130,
      "Â": 131,
      "Ã": 132,
      "Ä": 133,
      "Å": 134,
      "Æ": 135,
      "Ç": 136,
      "È": 137,
      "É": 138,
      "Ê": 139,
      "Ë": 140,
      "Ì": 141,
      "Í": 142,
      "Î": 143,
      "Ï": 144,
      "Ð": 145,
      "Ñ": 146,
      "Ò": 147,
      "Ó": 148,
      "Ô": 149,
      "Õ": 150,
      "Ö": 151,
      "×": 152,
      "Ø": 153,
      "Ù": 154,
      "Ú": 155,
      "Û": 156,
      "Ü": 157,
      "Ý": 158,
      "Þ": 159,
      "ß": 160,
      "à": 161,
      "á": 162,
      "â": 163,
      "ã": 164,
      "ä": 165,
      "å": 166,
      "æ": 167,
      "ç": 168,
      "è": 169,
      "é": 170,
      "ê": 171,
      "ë": 172,
      "ì": 173,
      "í": 174,
      "î": 175,
      "ï": 176,
      "ð": 177,
      "ñ": 178,
      "ò": 179,
      "ó": 180,
      "ô": 181,
      "õ": 182,
      "ö": 183,
      "÷": 184,
      "ø": 185,
      "ù": 186,
      "ú": 187,
      "û": 188,
      "ü": 189,
      "ý": 190,
      "þ": 191,
      "ÿ": 192,
      "Ā": 193,
      "ā": 194,
      "Ă": 195,
      "ă": 196,
      "Ą": 197,
      "ą": 198,
      "Ć": 199,
      "ć": 200,
      "Ĉ": 201,
      "ĉ": 202,
      "Ċ": 203,
      "ċ": 204,
      "Č": 205,
      "č": 206,
      "Ď": 207,
      "ď": 208,
      "Đ": 209,
      "đ": 210,
      "Ē": 211,
      "ē": 212,
      "Ĕ": 213,
      "ĕ": 214,
      "Ė": 215,
      "ė": 216,
      "Ę": 217,
      "ę": 218,
      "Ě": 219,
      "ě": 220,
      "Ĝ": 221,
      "ĝ": 222,
      "Ğ": 223,
      "ğ": 224,
      "Ġ": 225,
      "ġ": 226,
      "Ģ": 227,
      "ģ": 228,
      "Ĥ": 229,
      "ĥ": 230,
      "Ħ": 231,
      "ħ": 232,
      "Ĩ": 233,
      "ĩ": 234,
      "Ī": 235,
      "ī": 236,
      "Ĭ": 237,
      "ĭ": 238,
      "Į": 239,
      "į": 240,
      "İ": 241,
      "ı": 242,
      "Ĳ": 243,
      "ĳ": 244,
      "Ĵ": 245,
      "ĵ": 246,
      "Ķ": 247,
      "ķ": 248,
      "ĸ": 249,
      "Ĺ": 250,
      "ĺ": 251,
      "Ļ": 252,
      "ļ": 253,
      "Ľ": 254,
      "ľ": 255,
      "Ŀ": 256,
      "ŀ": 257,
      "Ł": 258,
      "ł": 259,
      "Ń": 260,
      "Ġt": 261,
      "he": 262,
      "Ġa": 263,
      "in": 264,
      "Ġthe": 265,
      "ou": 266,
      "Ġw": 267,
      "re": 268,
      "Ġs": 269,
      "ha": 270,
      "on": 271,
      "er": 272,
      "nd": 273,
      "Ġb": 274,
      "it": 275,
      "is": 276,
      "Ġc": 277,
      "Ġm": 278,
      "Ġo": 279,
      "Ġd": 280,
      "ing": 281,
      "Ġf": 282,
      "ll": 283,
      "Ġto": 284,
      "Ġy": 285,
      "an": 286,
      "OT": 287,
      "MOT": 288,
      "or": 289,
      "ed": 290,
      "es": 291,
      "hat": 292,
      "en": 293,
      "Ġp": 294,
      "Ġyou": 295,
      "Ġg": 296,
      "CH": 297,
      "Ġl": 298,
      "CHI": 299,
      "ar": 300,
      "Ġand": 301,
      "Ġof": 302,
      "as": 303,
      "Ġin": 304,
      "no": 305,
      "at": 306,
      "om": 307,
      "ĠI": 308,
      "Ġhe": 309,
      "'s": 310,
      "Ġh": 311,
      "Ġha": 312,
      "le": 313,
      "Ġit": 314,
      "ve": 315,
      "ay": 316,
      "et": 317,
      "ic": 318,
      "Ġon": 319,
      "Ġth": 320,
      "us": 321,
      "Ġthat": 322,
      "gh": 323,
      "id": 324,
      "Ġbe": 325,
      "oo": 326,
      "al": 327,
      "Ġis": 328,
      "ld": 329,
      "ow": 330,
      "ut": 331,
      "Ġe": 332,
      "Ġno": 333,
      "Ġwe": 334,
      "Ġwas": 335,
      "im": 336,
      "'t": 337,
      "ac": 338,
      "ke": 339,
      "ad": 340,
      "..": 341,
      "ot": 342,
      "ver": 343,
      "ri": 344,
      "Ġre": 345,
      "ght": 346,
      "Ġn": 347,
      "se": 348,
      "ir": 349,
      "Ġfor": 350,
      "ly": 351,
      "ent": 352,
      "Ġdo": 353,
      "ion": 354,
      "am": 355,
      "Ġst": 356,
      "ĠT": 357,
      "Ġu": 358,
      "out": 359,
      "st": 360,
      "Ġ=": 361,
      "ĠS": 362,
      "ith": 363,
      "ro": 364,
      "Ġk": 365,
      "ĠM": 366,
      "Ġme": 367,
      "ea": 368,
      "âĢ": 369,
      "her": 370,
      "Ġwith": 371,
      "ĠA": 372,
      "ome": 373,
      "all": 374,
      "and": 375,
      "Ġse": 376,
      "ur": 377,
      "Ġgo": 378,
      "Ġas": 379,
      "Ġli": 380,
      "ch": 381,
      "Ġan": 382,
      "ter": 383,
      "ĠC": 384,
      "Ġat": 385,
      "ĠB": 386,
      "ill": 387,
      "Ġwh": 388,
      "Ġnot": 389,
      "ould": 390,
      "Ġhave": 391,
      "Ġthis": 392,
      "ce": 393,
      "ĠH": 394,
      "here": 395,
      "now": 396,
      "ell": 397,
      "ook": 398,
      "ust": 399,
      "Ġare": 400,
      "if": 401,
      "ant": 402,
      "il": 403,
      "Ġhis": 404,
      "un": 405,
      "ain": 406,
      "um": 407,
      "ct": 408,
      "...": 409,
      "Ġthey": 410,
      "Ġr": 411,
      "Ġone": 412,
      "Ġknow": 413,
      "Ġcan": 414,
      "th": 415,
      "Ġup": 416,
      "Ġher": 417,
      "eah": 418,
      "ore": 419,
      "Ġthere": 420,
      "pp": 421,
      "Ġj": 422,
      "Ġne": 423,
      "xx": 424,
      "ie": 425,
      "IN": 426,
      "Ġdon": 427,
      "Ġwhat": 428,
      "Ġso": 429,
      "ĠP": 430,
      "Ġhad": 431,
      "ge": 432,
      "our": 433,
      "Ġyour": 434,
      "Ġall": 435,
      "Ġshe": 436,
      "Ġ\"": 437,
      "Ġmy": 438,
      "op": 439,
      "Ġfr": 440,
      "hen": 441,
      "ĠW": 442,
      "Ġsa": 443,
      "ab": 444,
      "ĠD": 445,
      "ack": 446,
      "Ġsh": 447,
      "el": 448,
      "Ġlike": 449,
      "ood": 450,
      "Ġ1": 451,
      "INV": 452,
      "Ġout": 453,
      "ight": 454,
      "Ġhim": 455,
      "ul": 456,
      "ry": 457,
      "ink": 458,
      "ol": 459,
      "ake": 460,
      "Ġab": 461,
      "Ġpl": 462,
      "ĠG": 463,
      "art": 464,
      "Ġfrom": 465,
      "The": 466,
      "oh": 467,
      "You": 468,
      "Ġget": 469,
      "Ġal": 470,
      "ig": 471,
      "right": 472,
      "Ġde": 473,
      "Ġbut": 474,
      "'re": 475,
      "red": 476,
      "han": 477,
      "ers": 478,
      "very": 479,
      "ĠF": 480,
      "ĠJ": 481,
      "ĠL": 482,
      "ation": 483,
      "Ġsee": 484,
      "ess": 485,
      "ck": 486,
      "ound": 487,
      "Ġwere": 488,
      "one": 489,
      "est": 490,
      "Ġor": 491,
      "AT": 492,
      "'m": 493,
      "ĠR": 494,
      "Ġdid": 495,
      "ist": 496,
      "what": 497,
      "ĠThe": 498,
      "qu": 499,
      "ind": 500,
      "ame": 501,
      "ra": 502,
      "ĠN": 503,
      "Ġby": 504,
      "ard": 505,
      "Ġsu": 506,
      "Ġthem": 507,
      "ong": 508,
      "os": 509,
      "ther": 510,
      "you": 511,
      "nt": 512,
      "itt": 513,
      "ak": 514,
      "own": 515,
      "Ġgot": 516,
      "Ġcom": 517,
      "Ġsome": 518,
      "Ġabout": 519,
      "Ġwor": 520,
      "ast": 521,
      "Ġthink": 522,
      "Ġus": 523,
      "Ġhere": 524,
      "Ġlook": 525,
      "res": 526,
      "Ġsp": 527,
      "na": 528,
      "'ll": 529,
      "Ġwant": 530,
      "ive": 531,
      "Ġ2": 532,
      "ally": 533,
      "ep": 534,
      "ĠE": 535,
      "Ġjust": 536,
      "yeah": 537,
      "em": 538,
      "Ġsaid": 539,
      "Ġcon": 540,
      "ice": 541,
      "ap": 542,
      "FAT": 543,
      "Ġv": 544,
      "].": 545,
      "Ġwould": 546,
      "ate": 547,
      "ĠĠ": 548,
      "od": 549,
      "Ġex": 550,
      "Ġif": 551,
      "ick": 552,
      "ĠO": 553,
      "Ġwho": 554,
      "ber": 555,
      "ime": 556,
      "Ġman": 557,
      "ough": 558,
      "Ġany": 559,
      "fe": 560,
      "ich": 561,
      "ine": 562,
      "ven": 563,
      "Ġwhen": 564,
      "use": 565,
      "Ġthen": 566,
      "ort": 567,
      "hing": 568,
      "Ġright": 569,
      "Ġnow": 570,
      "hi": 571,
      "Ġsay": 572,
      "ide": 573,
      "kay": 574,
      "are": 575,
      "ear": 576,
      "Ġwill": 577,
      "âĢľ": 578,
      "Ġtr": 579,
      "xxx": 580,
      "It": 581,
      "ag": 582,
      "Ġ(": 583,
      "Ġtw": 584,
      "that": 585,
      "Ġint": 586,
      "âĢĿ": 587,
      "ittle": 588,
      "'ve": 589,
      "ous": 590,
      "Ġbo": 591,
      "way": 592,
      "Ġdown": 593,
      ".\"": 594,
      "Ġback": 595,
      "au": 596,
      "Ġag": 597,
      "âĢĻ": 598,
      "ost": 599,
      "Ġpro": 600,
      "ĠHe": 601,
      "ies": 602,
      "Ġbeen": 603,
      "ca": 604,
      "Ġgoing": 605,
      "Ġcl": 606,
      "Ġlittle": 607,
      "Ġtime": 608,
      "--": 609,
      "ose": 610,
      "Ġput": 611,
      "Ġcould": 612,
      "Ġar": 613,
      "Ġgood": 614,
      "Ġhas": 615,
      "ne": 616,
      "Ġover": 617,
      "Ġmore": 618,
      "we": 619,
      "end": 620,
      "Ġ[": 621,
      "ace": 622,
      "Ġ19": 623,
      "He": 624,
      "Ġtoo": 625,
      "Ġtheir": 626,
      "ove": 627,
      "ĠIt": 628,
      "Ġoff": 629,
      "ity": 630,
      "lf": 631,
      "Ġvery": 632,
      "uh": 633,
      "Ġ20": 634,
      "the": 635,
      "ĠK": 636,
      "Ġwhich": 637,
      "ree": 638,
      "yes": 639,
      "ite": 640,
      "Ġro": 641,
      "cause": 642,
      "And": 643,
      "ure": 644,
      "Ġpe": 645,
      "my": 646,
      "Ġother": 647,
      "so": 648,
      "Ġqu": 649,
      "Ġtwo": 650,
      "Ġbr": 651,
      "ish": 652,
      "What": 653,
      "Ġaf": 654,
      "Ġplay": 655,
      "ings": 656,
      "Ġfe": 657,
      "ud": 658,
      "Ġle": 659,
      "alk": 660,
      "Ġgr": 661,
      "ft": 662,
      "pe": 663,
      "reat": 664,
      ",\"": 665,
      "ue": 666,
      "age": 667,
      "omet": 668,
      "urn": 669,
      "Ġcome": 670,
      "ond": 671,
      "hed": 672,
      "orn": 673,
      "hy": 674,
      "Ġbl": 675,
      "ought": 676,
      "ment": 677,
      "Ġinto": 678,
      "Ġxxx": 679,
      "ian": 680,
      "AR": 681,
      "ople": 682,
      "irst": 683,
      "ho": 684,
      "Ġ'": 685,
      "Yeah": 686,
      "ty": 687,
      "ps": 688,
      "ass": 689,
      "other": 690,
      "Ġagain": 691,
      "Oh": 692,
      "Ġway": 693,
      "iv": 694,
      "be": 695,
      "ade": 696,
      "We": 697,
      "Ġhow": 698,
      "ia": 699,
      "ase": 700,
      "ble": 701,
      "Ġwhere": 702,
      "pl": 703,
      "ire": 704,
      "Ġen": 705,
      "No": 706,
      "Ġmake": 707,
      "Ġer": 708,
      "onna": 709,
      "Ġthan": 710,
      "ater": 711,
      "Ġwork": 712,
      "Ġpr": 713,
      "ary": 714,
      "Ġdoes": 715,
      "ount": 716,
      "Ġpeople": 717,
      "iss": 718,
      "Ġsomet": 719,
      "ĠU": 720,
      "Ġcall": 721,
      "Ġday": 722,
      "Ġtell": 723,
      "Ġgonna": 724,
      "do": 725,
      "Ġtake": 726,
      "Ġwell": 727,
      "Ġco": 728,
      "int": 729,
      "Ġfl": 730,
      "his": 731,
      "add": 732,
      "Ġam": 733,
      "Ġcar": 734,
      "ov": 735,
      "Ġfirst": 736,
      "ĠSt": 737,
      "ci": 738,
      "pt": 739,
      "ran": 740,
      "hm": 741,
      "ord": 742,
      "okay": 743,
      "Ġneed": 744,
      "per": 745,
      "ng": 746,
      "uch": 747,
      "Ġmean": 748,
      "Ġafter": 749,
      "But": 750,
      "ff": 751,
      "Ġhand": 752,
      "ise": 753,
      "Ġbet": 754,
      "Ġpart": 755,
      "self": 756,
      "Ġour": 757,
      "Ġlet": 758,
      "fore": 759,
      "act": 760,
      "That": 761,
      "ull": 762,
      "Ġonly": 763,
      "wn": 764,
      "ather": 765,
      "nder": 766,
      "mer": 767,
      "Well": 768,
      "ark": 769,
      "Ġthr": 770,
      "thing": 771,
      "iz": 772,
      "ouse": 773,
      "av": 774,
      "Ġevery": 775,
      "Ġshould": 776,
      "Ġsha": 777,
      "ach": 778,
      "ys": 779,
      "where": 780,
      "Ġdidn": 781,
      "Ġmuch": 782,
      "les": 783,
      "uck": 784,
      "able": 785,
      "ress": 786,
      "Ġcha": 787,
      "ting": 788,
      "Ġpo": 789,
      "Ġun": 790,
      "augh": 791,
      "ady": 792,
      "Ġhapp": 793,
      "Ġsomething": 794,
      "ile": 795,
      "ob": 796,
      "Ġmade": 797,
      "Yes": 798,
      "ren": 799,
      "ub": 800,
      "ĠĠĠĠ": 801,
      "there": 802,
      "Ġpre": 803,
      "Ġyear": 804,
      "cl": 805,
      "Ġthese": 806,
      "Ġlong": 807,
      "ool": 808,
      "man": 809,
      "Ġte": 810,
      "Ġad": 811,
      "Ġgu": 812,
      "irl": 813,
      "Ġreally": 814,
      "Ġbig": 815,
      "ĠMr": 816,
      "day": 817,
      "Ġaway": 818,
      "Ġsm": 819,
      "ah": 820,
      "cc": 821,
      "ory": 822,
      "ated": 823,
      "Ġtalk": 824,
      "hes": 825,
      "Ġbefore": 826,
      "ict": 827,
      "hild": 828,
      "Ġdis": 829,
      "og": 830,
      "'d": 831,
      "ions": 832,
      "ĠV": 833,
      "ied": 834,
      "Ġwent": 835,
      "Ġsc": 836,
      "Ġke": 837,
      "anna": 838,
      "Ġunder": 839,
      "Ġbecause": 840,
      "ody": 841,
      "Ġwr": 842,
      "te": 843,
      "ence": 844,
      "Ġcomp": 845,
      "ĠâĢľ": 846,
      "Ġim": 847,
      "ang": 848,
      "ving": 849,
      "Ġrem": 850,
      "Ġsec": 851,
      "get": 852,
      "ward": 853,
      "Ġold": 854,
      "ix": 855,
      "Ġgirl": 856,
      "00": 857,
      "Ġnever": 858,
      "ĠIn": 859,
      "Ġcame": 860,
      "Ġcr": 861,
      "oll": 862,
      "riend": 863,
      "Ġhel": 864,
      "PAR": 865,
      "tain": 866,
      "Ġchild": 867,
      "Ġask": 868,
      "So": 869,
      "ful": 870,
      "but": 871,
      "ip": 872,
      "look": 873,
      "Ġhome": 874,
      "Ġdoing": 875,
      "Ġalso": 876,
      "ried": 877,
      "Ġthought": 878,
      "Ġch": 879,
      "atch": 880,
      "?\"": 881,
      "Ġapp": 882,
      "ny": 883,
      "Ġact": 884,
      "old": 885,
      "Ġmay": 886,
      "Ġper": 887,
      "nother": 888,
      "Ġthree": 889,
      "Ġturn": 890,
      "Ġbu": 891,
      "Ġmust": 892,
      "ons": 893,
      "oc": 894,
      "Ġthose": 895,
      "ors": 896,
      "well": 897,
      "gg": 898,
      "Ġnew": 899,
      "ock": 900,
      "ens": 901,
      "Ġthing": 902,
      "Ġthings": 903,
      "EX": 904,
      "Ġeven": 905,
      "ks": 906,
      "ance": 907,
      "akes": 908,
      "Ġthrough": 909,
      "Ġhouse": 910,
      "Ġfind": 911,
      "Ġbook": 912,
      "Ġgreat": 913,
      "Ġwanna": 914,
      "Ġhead": 915,
      "Ġeat": 916,
      "lease": 917,
      "ave": 918,
      "EXP": 919,
      "ĠY": 920,
      "up": 921,
      "ved": 922,
      "Ġmany": 923,
      "ait": 924,
      "aby": 925,
      "Ġstart": 926,
      "ĠShe": 927,
      "ily": 928,
      "ect": 929,
      "Ġanother": 930,
      "Ġstill": 931,
      "ans": 932,
      "ened": 933,
      "Ġwon": 934,
      "Ġhelp": 935,
      "ail": 936,
      "let": 937,
      "ath": 938,
      "Ġgive": 939,
      "Ġlast": 940,
      "land": 941,
      "can": 942,
      "Ġsl": 943,
      "ru": 944,
      "Ġlea": 945,
      "laugh": 946,
      "TE": 947,
      "Ġfound": 948,
      "oy": 949,
      "Ġcalled": 950,
      "aking": 951,
      "Ġdone": 952,
      "ĠCh": 953,
      "igh": 954,
      "Ġlove": 955,
      "aw": 956,
      "ious": 957,
      "ign": 958,
      "air": 959,
      "Ġnight": 960,
      "xt": 961,
      "Ġmight": 962,
      "rd": 963,
      "oot": 964,
      "come": 965,
      ".âĢĿ": 966,
      "ves": 967,
      "Ġbel": 968,
      "Ġbit": 969,
      "Ġshow": 970,
      "They": 971,
      "Ġcont": 972,
      "Ġres": 973,
      "Ġboy": 974,
      "Ġ201": 975,
      "In": 976,
      "Ġmin": 977,
      "Ġser": 978,
      "Ġtry": 979,
      "Ġname": 980,
      "ling": 981,
      "Ġchan": 982,
      "Ġel": 983,
      "ult": 984,
      "Ġlot": 985,
      "Ġfriend": 986,
      "med": 987,
      "ms": 988,
      "side": 989,
      "body": 990,
      "Ġop": 991,
      "ars": 992,
      "ild": 993,
      "ates": 994,
      "She": 995,
      "ĠUn": 996,
      "Ġaround": 997,
      "als": 998,
      "ually": 999,
      "Ġdif": 1000,
      "Ġbot": 1001,
      "Ġisn": 1002,
      "oney": 1003,
      "oss": 1004,
      "There": 1005,
      "ummy": 1006,
      "Ġown": 1007,
      "chool": 1008,
      ".]": 1009,
      "Ġits": 1010,
      "Ġgl": 1011,
      "This": 1012,
      "Ġmov": 1013,
      "Ġkind": 1014,
      "Ġbetter": 1015,
      "ember": 1016,
      "Ġche": 1017,
      "ee": 1018,
      "ever": 1019,
      "mhm": 1020,
      "AN": 1021,
      "huh": 1022,
      "Ġcomm": 1023,
      "Ġmost": 1024,
      "Ġcare": 1025,
      "IS": 1026,
      "Ġend": 1027,
      "ĠAnd": 1028,
      "Ġplace": 1029,
      "Ġwater": 1030,
      "Ġrec": 1031,
      "Ġcount": 1032,
      "ces": 1033,
      "Ġmom": 1034,
      "rent": 1035,
      "Ġyears": 1036,
      "ĠThey": 1037,
      "imes": 1038,
      "ways": 1039,
      "Ġbaby": 1040,
      "Ġfeel": 1041,
      "ye": 1042,
      "ical": 1043,
      "ww": 1044,
      "Ġused": 1045,
      ",âĢĿ": 1046,
      "port": 1047,
      "led": 1048,
      "Ġsure": 1049,
      "Ġwhy": 1050,
      "ew": 1051,
      "ited": 1052,
      "vers": 1053,
      "for": 1054,
      "Ġcour": 1055,
      "Ġbeing": 1056,
      "Ġkeep": 1057,
      "Ġmother": 1058,
      "row": 1059,
      "!\"": 1060,
      "ince": 1061,
      "ĠYou": 1062,
      "inn": 1063,
      "Ġlife": 1064,
      "Ġatt": 1065,
      "Ġanything": 1066,
      "Ġnice": 1067,
      "Ġelse": 1068,
      "Ġsuch": 1069,
      "ont": 1070,
      "li": 1071,
      "Ġwhile": 1072,
      "amp": 1073,
      "Ġroom": 1074,
      "Ġbeg": 1075,
      "Ġdes": 1076,
      "Ġsame": 1077,
      "Ġrun": 1078,
      "Ġdoesn": 1079,
      "ds": 1080,
      "this": 1081,
      "Ġlooks": 1082,
      "Ġsupp": 1083,
      "ss": 1084,
      "Ġfour": 1085,
      "orry": 1086,
      "laughs": 1087,
      "Ġbre": 1088,
      "Ġear": 1089,
      "Ġuh": 1090,
      "How": 1091,
      "Ġfin": 1092,
      "ere": 1093,
      "RO": 1094,
      "Ġsaw": 1095,
      "Ġschool": 1096,
      "Ġ3": 1097,
      "Ġtold": 1098,
      "atter": 1099,
      "they": 1100,
      "ute": 1101,
      "how": 1102,
      "Ġokay": 1103,
      "Ġbus": 1104,
      "If": 1105,
      "AD": 1106,
      "Ġnext": 1107,
      "HE": 1108,
      "ations": 1109,
      "Ġleft": 1110,
      "Ġalways": 1111,
      "ĠBr": 1112,
      "ition": 1113,
      "Ġyes": 1114,
      "ction": 1115,
      "Ġset": 1116,
      "Ġdr": 1117,
      "Ġfar": 1118,
      "du": 1119,
      "mm": 1120,
      "addy": 1121,
      "pped": 1122,
      "Ġsw": 1123,
      "ĠBut": 1124,
      "und": 1125,
      "she": 1126,
      "ced": 1127,
      "ident": 1128,
      "aught": 1129,
      "Ġwee": 1130,
      "leep": 1131,
      "Ġfather": 1132,
      "mp": 1133,
      "meric": 1134,
      "ump": 1135,
      "ta": 1136,
      "Ġmen": 1137,
      "Ġsit": 1138,
      "Why": 1139,
      "ins": 1140,
      "ung": 1141,
      "Ġyeah": 1142,
      "Ġdiffe": 1143,
      "Do": 1144,
      "outh": 1145,
      "Ġever": 1146,
      "hank": 1147,
      "ug": 1148,
      "Ġhard": 1149,
      "Ġcle": 1150,
      "Ġread": 1151,
      "ĠMar": 1152,
      "Ġfam": 1153,
      "ream": 1154,
      "Ġtook": 1155,
      "¿½": 1156,
      "ï¿½": 1157,
      "Ġwait": 1158,
      "ness": 1159,
      "ister": 1160,
      "Ġcol": 1161,
      "Ġmon": 1162,
      "Ġunt": 1163,
      "Ġhold": 1164,
      "de": 1165,
      "Ġpres": 1166,
      "ret": 1167,
      "Ġnum": 1168,
      "Ġgone": 1169,
      "oun": 1170,
      "Ġpret": 1171,
      "not": 1172,
      "Ġuse": 1173,
      "Ġmoney": 1174,
      "Ġdoor": 1175,
      "Ġpoint": 1176,
      "vel": 1177,
      "raw": 1178,
      "orning": 1179,
      "Ġfun": 1180,
      "Ġele": 1181,
      "Ġenough": 1182,
      "ĠAmeric": 1183,
      "Ġpol": 1184,
      "Ġcoming": 1185,
      "Ġhear": 1186,
      "vent": 1187,
      "Ġac": 1188,
      "Ġball": 1189,
      "Now": 1190,
      "ished": 1191,
      "Ġbed": 1192,
      "Ġret": 1193,
      "Ġthough": 1194,
      "Ġwalk": 1195,
      "ĠTh": 1196,
      "erson": 1197,
      "Ġ200": 1198,
      "Ġkne": 1199,
      "Ġob": 1200,
      "mber": 1201,
      "Ġsur": 1202,
      "Ġbox": 1203,
      "Ġplease": 1204,
      "Ġsays": 1205,
      "Ġgoes": 1206,
      "ower": 1207,
      "pect": 1208,
      "Ġwar": 1209,
      "who": 1210,
      "Ġacc": 1211,
      "to": 1212,
      "Ġside": 1213,
      "Ġmar": 1214,
      "âĻ": 1215,
      "Ġyoung": 1216,
      "gr": 1217,
      "Ġerm": 1218,
      "Ġwom": 1219,
      "ts": 1220,
      "az": 1221,
      "Ġeyes": 1222,
      "Ġstr": 1223,
      "Ġmorning": 1224,
      "Ġopen": 1225,
      "ger": 1226,
      "\".": 1227,
      "Ġuntil": 1228,
      "ec": 1229,
      "Ġreal": 1230,
      "oup": 1231,
      "ries": 1232,
      "Ġasked": 1233,
      "ĠAr": 1234,
      "Don": 1235,
      "âĻª": 1236,
      "Ġbelie": 1237,
      "uff": 1238,
      "Ġbir": 1239,
      "Ġsing": 1240,
      "ph": 1241,
      "Ġ.": 1242,
      "ows": 1243,
      "Ġpass": 1244,
      "Ġseen": 1245,
      "me": 1246,
      "Ġquite": 1247,
      "ired": 1248,
      "Ġcourse": 1249,
      "Ġreg": 1250,
      "Ġgre": 1251,
      "ross": 1252,
      "Ġlight": 1253,
      "TEA": 1254,
      "cle": 1255,
      "ĠFran": 1256,
      "Ġfive": 1257,
      "Ġstand": 1258,
      "Ġlooking": 1259,
      "bab": 1260,
      "mb": 1261,
      "Ġnothing": 1262,
      "Ġdist": 1263,
      "Ġfew": 1264,
      "leas": 1265,
      "ible": 1266,
      "ĠAl": 1267,
      "any": 1268,
      "Ġbest": 1269,
      "SIS": 1270,
      "Ġworld": 1271,
      "Ġnear": 1272,
      "Ġsecond": 1273,
      "ope": 1274,
      "ES": 1275,
      "Ġstay": 1276,
      "MA": 1277,
      "Ġent": 1278,
      "Ġdifferent": 1279,
      "put": 1280,
      "tle": 1281,
      "gether": 1282,
      "eak": 1283,
      "Ġtogether": 1284,
      "why": 1285,
      "ween": 1286,
      "Ġsmall": 1287,
      "ank": 1288,
      "une": 1289,
      "ĠAn": 1290,
      "Ġfell": 1291,
      "ten": 1292,
      "go": 1293,
      "Ġface": 1294,
      "Ġround": 1295,
      "ial": 1296,
      "ĠThis": 1297,
      "ning": 1298,
      "Ġpick": 1299,
      "Come": 1300,
      "ational": 1301,
      "Ġonce": 1302,
      "Ġsound": 1303,
      "Ġheard": 1304,
      "ib": 1305,
      "Ġyet": 1306,
      "aster": 1307,
      "Ġknown": 1308,
      "Ġdog": 1309,
      "MCH": 1310,
      "ĠCha": 1311,
      "Ġhands": 1312,
      "uring": 1313,
      "Ġdear": 1314,
      "All": 1315,
      "ctor": 1316,
      "ents": 1317,
      "Ġ_": 1318,
      "Ġshall": 1319,
      "Ġsoon": 1320,
      "oor": 1321,
      "Ġpie": 1322,
      "Ġwind": 1323,
      "Ġchar": 1324,
      "ollow": 1325,
      "ton": 1326,
      "cy": 1327,
      "Ġeach": 1328,
      "Ġhur": 1329,
      "Ġgetting": 1330,
      "Ġsk": 1331,
      "ener": 1332,
      "Ġboth": 1333,
      "âĢĵ": 1334,
      "Ġdri": 1335,
      "Ġmil": 1336,
      "don": 1337,
      "Ġcap": 1338,
      "ash": 1339,
      "Ġsix": 1340,
      "Ġchildren": 1341,
      "Ġ202": 1342,
      "Ġremember": 1343,
      "Ġsleep": 1344,
      "Ġleave": 1345,
      "Ġmind": 1346,
      "Ġrel": 1347,
      "Ġupon": 1348,
      "Ġtoday": 1349,
      "Ġter": 1350,
      "ures": 1351,
      "ush": 1352,
      "OU": 1353,
      "Ġwithout": 1354,
      "Ġhimself": 1355,
      "Ġrest": 1356,
      "oon": 1357,
      "ject": 1358,
      "its": 1359,
      "ets": 1360,
      "),": 1361,
      "Ġfall": 1362,
      "Ġbetween": 1363,
      "oe": 1364,
      "fta": 1365,
      "Is": 1366,
      "Ġnor": 1367,
      "ason": 1368,
      "Ġlist": 1369,
      "Ġfire": 1370,
      "sh": 1371,
      "ris": 1372,
      "rist": 1373,
      "Ġbro": 1374,
      "Let": 1375,
      "Ġwatch": 1376,
      "ating": 1377,
      "Ġbad": 1378,
      "Ġtrain": 1379,
      "ĠWhat": 1380,
      "iet": 1381,
      ").": 1382,
      "Ġhappened": 1383,
      "did": 1384,
      "Ġnumber": 1385,
      "Ġwanted": 1386,
      "Ġperson": 1387,
      "My": 1388,
      "ics": 1389,
      "Ġum": 1390,
      "Ġpict": 1391,
      "Ġlooked": 1392,
      "ane": 1393,
      "fect": 1394,
      "ier": 1395,
      "der": 1396,
      "ife": 1397,
      "ale": 1398,
      "ats": 1399,
      "stand": 1400,
      "ohn": 1401,
      "ged": 1402,
      "less": 1403,
      "Ġhafta": 1404,
      "ular": 1405,
      "Ġhat": 1406,
      "ball": 1407,
      "ames": 1408,
      "ĠĠĠĠĠĠĠĠ": 1409,
      "Ġ4": 1410,
      "ines": 1411,
      "Ġhalf": 1412,
      "br": 1413,
      "Ġ18": 1414,
      "ĠEng": 1415,
      "io": 1416,
      "cha": 1417,
      "ina": 1418,
      "âĢĶ": 1419,
      "most": 1420,
      "Ġhaven": 1421,
      "Ġbec": 1422,
      "ĠDe": 1423,
      "Ġdec": 1424,
      "Ġsorry": 1425,
      "Ġknew": 1426,
      "Ġhaving": 1427,
      "Ġmus": 1428,
      "BRO": 1429,
      "Ġmatter": 1430,
      "St": 1431,
      "ER": 1432,
      "Not": 1433,
      "ched": 1434,
      "Ġfoot": 1435,
      "Ġpap": 1436,
      "ĠThere": 1437,
      "aut": 1438,
      "GMA": 1439,
      "Ġlater": 1440,
      "ĠNew": 1441,
      "eter": 1442,
      "Ġinst": 1443,
      "Ġalong": 1444,
      "bo": 1445,
      "unt": 1446,
      "Ġstory": 1447,
      "ĠGr": 1448,
      "by": 1449,
      "ork": 1450,
      "ĠWe": 1451,
      "Ġlar": 1452,
      "ric": 1453,
      "Ġri": 1454,
      "Ġhigh": 1455,
      "Ġtalking": 1456,
      "Ġph": 1457,
      "Ġheart": 1458,
      "onder": 1459,
      "Ġsort": 1460,
      "Ġfollow": 1461,
      "sel": 1462,
      "ready": 1463,
      "ĠSp": 1464,
      "Ġans": 1465,
      "Ġair": 1466,
      "ertain": 1467,
      "Okay": 1468,
      "Ġcons": 1469,
      "âĮ": 1470,
      "Ġtop": 1471,
      "Ġeverything": 1472,
      "eth": 1473,
      "Ġdays": 1474,
      "Ġhour": 1475,
      "Ġtable": 1476,
      "Ġlive": 1477,
      "Ġhor": 1478,
      "Ġgave": 1479,
      "Ġready": 1480,
      "Ġstop": 1481,
      "rew": 1482,
      "Ġinter": 1483,
      "Ġagainst": 1484,
      "wh": 1485,
      "Ġdep": 1486,
      "Ġpretty": 1487,
      "cial": 1488,
      "osed": 1489,
      "ĠAs": 1490,
      "ches": 1491,
      "Ġred": 1492,
      "Ġoh": 1493,
      "ĠUnited": 1494,
      "ĠNo": 1495,
      "iness": 1496,
      "ĠMrs": 1497,
      "Ġboys": 1498,
      "wo": 1499,
      "Ġtra": 1500,
      "Ġmove": 1501,
      "Ġdire": 1502,
      "Ġcity": 1503,
      "ĠAmerican": 1504,
      "aid": 1505,
      "cept": 1506,
      "ither": 1507,
      "Ġbreak": 1508,
      "Ġ199": 1509,
      "Ġmaking": 1510,
      "?âĢĿ": 1511,
      "dd": 1512,
      "idd": 1513,
      "Ġinv": 1514,
      "Ġwasn": 1515,
      "ĠMiss": 1516,
      "ual": 1517,
      "Ġ5": 1518,
      "When": 1519,
      "hip": 1520,
      "ubl": 1521,
      "Ġsir": 1522,
      "ING": 1523,
      "Hey": 1524,
      "ters": 1525,
      "Ġanim": 1526,
      "ĠGod": 1527,
      "Ġmiss": 1528,
      "\",": 1529,
      "Ġfamily": 1530,
      "Ġbelieve": 1531,
      "ully": 1532,
      "Be": 1533,
      "Ġbring": 1534,
      "Ġdied": 1535,
      "Ġdrink": 1536,
      "uth": 1537,
      "----": 1538,
      "Ġreturn": 1539,
      "Ġkill": 1540,
      "oint": 1541,
      "read": 1542,
      "Ġvo": 1543,
      "Ġsy": 1544,
      "ern": 1545,
      "ike": 1546,
      "enty": 1547,
      "clud": 1548,
      "ĠInd": 1549,
      "Ġimp": 1550,
      "Ġwhole": 1551,
      "Ġsince": 1552,
      "ommy": 1553,
      "Ġid": 1554,
      "Ġtri": 1555,
      "Ġsaying": 1556,
      "Ġmoment": 1557,
      "erest": 1558,
      "fter": 1559,
      "ision": 1560,
      "app": 1561,
      "orrow": 1562,
      "ax": 1563,
      "Ġtown": 1564,
      "Ġnoise": 1565,
      "Ġstarted": 1566,
      "wards": 1567,
      "Ġstud": 1568,
      "ery": 1569,
      "Uh": 1570,
      "Ġwhe": 1571,
      "Mm": 1572,
      "Then": 1573,
      "see": 1574,
      "Ġadd": 1575,
      "Ġmeet": 1576,
      "ered": 1577,
      "aj": 1578,
      "Ġsub": 1579,
      "Ġca": 1580,
      "Ġpop": 1581,
      "ted": 1582,
      "Ġbas": 1583,
      "Ġborn": 1584,
      "ring": 1585,
      "Th": 1586,
      "Ġcut": 1587,
      "bably": 1588,
      "ma": 1589,
      "vern": 1590,
      "Ġdel": 1591,
      "Ġfood": 1592,
      "Ġwouldn": 1593,
      "Ġwonder": 1594,
      "Ġind": 1595,
      "ield": 1596,
      "Ġcent": 1597,
      "Ġlaugh": 1598,
      "ï¿½ï¿½": 1599,
      "Ġtrying": 1600,
      "Ġste": 1601,
      "Ġland": 1602,
      "Ġsong": 1603,
      "Ġfriends": 1604,
      "Ġunderstand": 1605,
      "ok": 1606,
      "Ġchair": 1607,
      "ĠJohn": 1608,
      "ĠCar": 1609,
      "Ġcomes": 1610,
      "ĠCl": 1611,
      "Ġquest": 1612,
      "uss": 1613,
      "cess": 1614,
      "Ġinterest": 1615,
      "Ã©": 1616,
      "Ġactually": 1617,
      "Ġgame": 1618,
      "Ġbrother": 1619,
      "Ġword": 1620,
      "Ġdisc": 1621,
      "Ġswe": 1622,
      "Ġfloor": 1623,
      "ĠChrist": 1624,
      "Where": 1625,
      "Ġdoll": 1626,
      "www": 1627,
      "aken": 1628,
      "ON": 1629,
      "zz": 1630,
      "omas": 1631,
      "Ġclose": 1632,
      "Just": 1633,
      "ony": 1634,
      "||": 1635,
      "ined": 1636,
      "Ġwhite": 1637,
      "Ġteam": 1638,
      "Ġdro": 1639,
      "On": 1640,
      "Ġwrong": 1641,
      "Ġ-": 1642,
      "ative": 1643,
      "ustr": 1644,
      "aces": 1645,
      "ants": 1646,
      "ĠIs": 1647,
      "Ġfeet": 1648,
      "Ġblack": 1649,
      "Ġalready": 1650,
      "Ġminute": 1651,
      "Right": 1652,
      "ĠMummy": 1653,
      "Ġmet": 1654,
      "Ġalmost": 1655,
      "Ġsign": 1656,
      "Ġbuild": 1657,
      "ĠCHI": 1658,
      "oke": 1659,
      "Ġhot": 1660,
      "ĠZ": 1661,
      "ocal": 1662,
      "Ġsent": 1663,
      "Ġbecame": 1664,
      "ying": 1665,
      "Ġjob": 1666,
      "ĠBl": 1667,
      "ĠGer": 1668,
      "Ġposs": 1669,
      "ird": 1670,
      "Ġbegan": 1671,
      "Ġsil": 1672,
      "Ġcountry": 1673,
      "ole": 1674,
      "ĠTHE": 1675,
      "Who": 1676,
      "ives": 1677,
      "Ġson": 1678,
      "Ġplaying": 1679,
      "Ġbeaut": 1680,
      "sha": 1681,
      "Er": 1682,
      "Ġeas": 1683,
      "Ġpay": 1684,
      "ĠNor": 1685,
      "ĠThen": 1686,
      "ĠStates": 1687,
      "Ġtimes": 1688,
      "undred": 1689,
      "aybe": 1690,
      "ex": 1691,
      "hind": 1692,
      "Ġrep": 1693,
      "EN": 1694,
      "Ġidea": 1695,
      "Ġkid": 1696,
      "Ġspeak": 1697,
      "Ġhair": 1698,
      "ense": 1699,
      "Ġpain": 1700,
      "elt": 1701,
      "ama": 1702,
      "Look": 1703,
      "Ġguess": 1704,
      "ize": 1705,
      "Ġcat": 1706,
      "Ġfact": 1707,
      "ues": 1708,
      "Ġblue": 1709,
      "Ġsqu": 1710,
      "ĠBe": 1711,
      "oud": 1712,
      "Ġass": 1713,
      "Ġlost": 1714,
      "got": 1715,
      "ages": 1716,
      "Ġeight": 1717,
      "Ġplayed": 1718,
      "Ġdraw": 1719,
      "Ġlead": 1720,
      "good": 1721,
      "Ġref": 1722,
      "Ġ198": 1723,
      "ital": 1724,
      "Ġpull": 1725,
      "Ġgi": 1726,
      "ities": 1727,
      "ĠSo": 1728,
      "cted": 1729,
      "Ġpaper": 1730,
      "Ġinclud": 1731,
      "ared": 1732,
      "eb": 1733,
      "Ġtre": 1734,
      "Ġwoman": 1735,
      "ner": 1736,
      "Ġfront": 1737,
      "ently": 1738,
      "ster": 1739,
      "rom": 1740,
      "ene": 1741,
      "Ġbrought": 1742,
      "19": 1743,
      "Ġpicture": 1744,
      "just": 1745,
      "airs": 1746,
      "Ġhappy": 1747,
      "Ġhundred": 1748,
      "Ġexp": 1749,
      "Ġmusic": 1750,
      "Ġfine": 1751,
      "Ġspe": 1752,
      "Ġ6": 1753,
      "OR": 1754,
      "Ġcoll": 1755,
      "Ġfight": 1756,
      "Ġbehind": 1757,
      "ouch": 1758,
      "ape": 1759,
      "Ġten": 1760,
      "Ġcontin": 1761,
      "Ġmakes": 1762,
      "Ġquick": 1763,
      "Ġgotta": 1764,
      "Ġran": 1765,
      "Ġcertain": 1766,
      "Ġfull": 1767,
      "LL": 1768,
      "Ġleg": 1769,
      "Ġduring": 1770,
      "Ġpur": 1771,
      "Ġvoice": 1772,
      "Ġaw": 1773,
      "haps": 1774,
      "wer": 1775,
      "Are": 1776,
      "Ġsat": 1777,
      "Ġhope": 1778,
      "Ġplan": 1779,
      "Ġgirls": 1780,
      "Ġturned": 1781,
      "Ġprobably": 1782,
      "Ġmonth": 1783,
      "ober": 1784,
      "ĠAll": 1785,
      "Ġconf": 1786,
      "Ġmeans": 1787,
      "che": 1788,
      "oes": 1789,
      "Ġstuff": 1790,
      "ury": 1791,
      "Did": 1792,
      "Ġparty": 1793,
      "iful": 1794,
      "Ġseemed": 1795,
      "Ġext": 1796,
      "Ġgreen": 1797,
      "ik": 1798,
      "Ġweek": 1799,
      "Ġhum": 1800,
      "RA": 1801,
      "ming": 1802,
      "ĠAt": 1803,
      "ouble": 1804,
      "Ġexpl": 1805,
      "like": 1806,
      "ised": 1807,
      "itting": 1808,
      "key": 1809,
      "Ġcolor": 1810,
      "ises": 1811,
      "utes": 1812,
      "tern": 1813,
      "ple": 1814,
      "ĠHow": 1815,
      "Ġhuh": 1816,
      "Ġmovie": 1817,
      "Ġprom": 1818,
      "Ġwants": 1819,
      "room": 1820,
      "ote": 1821,
      "Good": 1822,
      "ided": 1823,
      "Ġable": 1824,
      "Ġdead": 1825,
      "ĠKing": 1826,
      "ellow": 1827,
      "Ġshort": 1828,
      "Ġcouldn": 1829,
      "Ġlear": 1830,
      "Ġoutside": 1831,
      "As": 1832,
      "lish": 1833,
      "Ġexc": 1834,
      "Ġgener": 1835,
      "ured": 1836,
      "because": 1837,
      "Ġtaken": 1838,
      "Ġproble": 1839,
      "ert": 1840,
      "rying": 1841,
      "Ġsim": 1842,
      "ĠPr": 1843,
      "ned": 1844,
      "Ġcur": 1845,
      "Ġ7": 1846,
      "unch": 1847,
      "Ġlate": 1848,
      "Ġsun": 1849,
      "ĠThat": 1850,
      "Ġoffic": 1851,
      "ney": 1852,
      "ese": 1853,
      "Ġ8": 1854,
      "Ġoften": 1855,
      "!âĢĿ": 1856,
      "Mr": 1857,
      "Ġcook": 1858,
      "Ġimport": 1859,
      "Ġfore": 1860,
      "men": 1861,
      "ief": 1862,
      "inner": 1863,
      "hey": 1864,
      "Ġmyself": 1865,
      "els": 1866,
      "ipp": 1867,
      "Ġrecord": 1868,
      "ides": 1869,
      "ĠBob": 1870,
      "ĠRe": 1871,
      "Ġ197": 1872,
      "Thank": 1873,
      "Ġones": 1874,
      "For": 1875,
      "ivers": 1876,
      "fully": 1877,
      "omm": 1878,
      "Ġrepl": 1879,
      "Ġwords": 1880,
      "Ġstick": 1881,
      "ĠJack": 1882,
      "Ġstre": 1883,
      "Ġbusiness": 1884,
      "Ġes": 1885,
      "head": 1886,
      "Ġpiece": 1887,
      "Ġhorse": 1888,
      "Ġbar": 1889,
      "ards": 1890,
      "iew": 1891,
      "ĠQ": 1892,
      "ĠFor": 1893,
      "Ġminutes": 1894,
      "bit": 1895,
      "Ġvis": 1896,
      "illy": 1897,
      "Ġaren": 1898,
      "Ġhappen": 1899,
      "Ġthank": 1900,
      "ĠSc": 1901,
      "Ġdress": 1902,
      "Ġmine": 1903,
      "Ġclot": 1904,
      "ĠHar": 1905,
      "ments": 1906,
      "Ġmaybe": 1907,
      "Ġyourself": 1908,
      "dy": 1909,
      "rog": 1910,
      "Ġsister": 1911,
      "NAN": 1912,
      "sp": 1913,
      "Ġless": 1914,
      "Ġcup": 1915,
      "ones": 1916,
      "bed": 1917,
      "LO": 1918,
      "Ġpoor": 1919,
      "Ġpu": 1920,
      "Ġdeath": 1921,
      "aur": 1922,
      "used": 1923,
      "Can": 1924,
      "Ġtaking": 1925,
      "Ġlarge": 1926,
      "ized": 1927,
      "Ġrock": 1928,
      "Ġprodu": 1929,
      "ĠGerman": 1930,
      "leased": 1931,
      "Ġeng": 1932,
      "more": 1933,
      "selves": 1934,
      "Ġed": 1935,
      "Mummy": 1936,
      "Ġline": 1937,
      "Ġinc": 1938,
      "Ġbear": 1939,
      "ĠDaddy": 1940,
      "ention": 1941,
      "ublic": 1942,
      "Ġform": 1943,
      "Ġmag": 1944,
      "ey": 1945,
      "Ġtill": 1946,
      "Ġdark": 1947,
      "Ġrather": 1948,
      "Ġev": 1949,
      "Ġmed": 1950,
      "gan": 1951,
      "Ġwife": 1952,
      "ison": 1953,
      "Ġfelt": 1954,
      "ĠHis": 1955,
      "ider": 1956,
      "Ġ,": 1957,
      "Ġroad": 1958,
      "Ġinside": 1959,
      "ze": 1960,
      "uc": 1961,
      "ific": 1962,
      "Ġart": 1963,
      "Ġcase": 1964,
      "iver": 1965,
      "olog": 1966,
      "Ġmain": 1967,
      "Ġsn": 1968,
      "aughter": 1969,
      "oub": 1970,
      "arent": 1971,
      "Ġtele": 1972,
      "Al": 1973,
      "Ġago": 1974,
      "Ġgrand": 1975,
      "son": 1976,
      "Ġage": 1977,
      "ĠâĢĵ": 1978,
      "Ġreac": 1979,
      "Ġalone": 1980,
      "eng": 1981,
      "Ġcold": 1982,
      "ĠThomas": 1983,
      "LD": 1984,
      "RE": 1985,
      "aim": 1986,
      "Go": 1987,
      "bye": 1988,
      "Ġbeautiful": 1989,
      "ĠWhen": 1990,
      "Ġguy": 1991,
      "Ġgiven": 1992,
      "Ġlady": 1993,
      "amed": 1994,
      "form": 1995,
      "Ġtree": 1996,
      "thank": 1997,
      "gin": 1998,
      "ĠOh": 1999,
      "Ġpresent": 2000,
      "000": 2001,
      "rap": 2002,
      "Ġserv": 2003,
      "llo": 2004,
      "Ġstrong": 2005,
      "Ġcir": 2006,
      "rest": 2007,
      "fl": 2008,
      "ator": 2009,
      "over": 2010,
      "Ġlisten": 2011,
      "Ġ9": 2012,
      "ead": 2013,
      "Ġpower": 2014,
      "rench": 2015,
      "Ġstate": 2016,
      "enn": 2017,
      "Ġboat": 2018,
      "have": 2019,
      "DS": 2020,
      "ists": 2021,
      "sc": 2022,
      "Ġchange": 2023,
      "min": 2024,
      "Ġpage": 2025,
      "kes": 2026,
      "DAD": 2027,
      "Ġwood": 2028,
      "Ġsweet": 2029,
      "Ġtoys": 2030,
      "Ġtrue": 2031,
      "Ġeither": 2032,
      "Ġothers": 2033,
      "Ġimportant": 2034,
      "Ġfunny": 2035,
      "born": 2036,
      "20": 2037,
      "morrow": 2038,
      "range": 2039,
      "Ġbirth": 2040,
      "ĠMay": 2041,
      "Ġwear": 2042,
      "ĠEnglish": 2043,
      "ffe": 2044,
      "ots": 2045,
      "Ġi": 2046,
      "Ġground": 2047,
      "Ġsomeone": 2048,
      "Ġ196": 2049,
      "Ġbody": 2050,
      "Ġpast": 2051,
      "Ġbag": 2052,
      "ĠOn": 2053,
      "ĠMOT": 2054,
      "Ġocc": 2055,
      "Ġpar": 2056,
      "Ġmark": 2057,
      "Ġpri": 2058,
      "umb": 2059,
      "Ġwish": 2060,
      "artment": 2061,
      "Ġmess": 2062,
      "ĠCount": 2063,
      "Ġclear": 2064,
      "gy": 2065,
      "icha": 2066,
      "Ġfast": 2067,
      "Ġleast": 2068,
      "Ġacross": 2069,
      "Ġclass": 2070,
      "Ġfav": 2071,
      "Ġdar": 2072,
      "iving": 2073,
      "Ġgovern": 2074,
      "atur": 2075,
      "Ġgets": 2076,
      "sing": 2077,
      "Ġtrans": 2078,
      "then": 2079,
      "Ġorder": 2080,
      "ken": 2081,
      "ians": 2082,
      "ĠTom": 2083,
      "Ġ10": 2084,
      "ained": 2085,
      "Ġworking": 2086,
      "Ġquestion": 2087,
      "ĠJan": 2088,
      "Ġsometimes": 2089,
      "idge": 2090,
      "uro": 2091,
      "ham": 2092,
      "Ġlay": 2093,
      "Ġadv": 2094,
      "At": 2095,
      "Ġbuy": 2096,
      "fic": 2097,
      "fort": 2098,
      "Ġhon": 2099,
      "ley": 2100,
      "Ġtwenty": 2101,
      "MAR": 2102,
      "Ġsea": 2103,
      "Here": 2104,
      "Ġprov": 2105,
      "Ġearly": 2106,
      "ately": 2107,
      "ature": 2108,
      "Ġdeal": 2109,
      "ara": 2110,
      "Ġhurt": 2111,
      "Ġfif": 2112,
      "Ġgrow": 2113,
      "Ġmilk": 2114,
      "Ġsever": 2115,
      "ĠWill": 2116,
      "pri": 2117,
      "does": 2118,
      "ĠIf": 2119,
      "Ġem": 2120,
      "Ġlaw": 2121,
      "uhhuh": 2122,
      "ello": 2123,
      "Ġcho": 2124,
      "anc": 2125,
      "oops": 2126,
      "Your": 2127,
      "Ġarea": 2128,
      "Ġcreat": 2129,
      "iting": 2130,
      "ls": 2131,
      "Ġtea": 2132,
      "rence": 2133,
      "iding": 2134,
      "ĠFrance": 2135,
      "Ġty": 2136,
      "ges": 2137,
      "ety": 2138,
      "Ġwin": 2139,
      "Ġgun": 2140,
      "een": 2141,
      "Ġrece": 2142,
      "rie": 2143,
      "Ġstar": 2144,
      "Ġjo": 2145,
      "Ġseveral": 2146,
      "pr": 2147,
      "raid": 2148,
      "hil": 2149,
      "ĠFl": 2150,
      "ĠBrit": 2151,
      "Ġanimals": 2152,
      "Ġgroup": 2153,
      "erv": 2154,
      "ummer": 2155,
      "Ġglad": 2156,
      "ana": 2157,
      "itc": 2158,
      "Ġpos": 2159,
      "Ġtried": 2160,
      "An": 2161,
      "Ġexpect": 2162,
      "Ġfinished": 2163,
      "when": 2164,
      "Ġfair": 2165,
      "Ġherself": 2166,
      "ains": 2167,
      "ĠYes": 2168,
      "ilt": 2169,
      "Ġfish": 2170,
      "ism": 2171,
      "Ġprot": 2172,
      "ĠâĻª": 2173,
      "Ġfig": 2174,
      "irty": 2175,
      "ĠHer": 2176,
      "iously": 2177,
      "Ġguys": 2178,
      "Ġclean": 2179,
      "]?": 2180,
      "PAT": 2181,
      "eor": 2182,
      "Ġdinner": 2183,
      "Ġcried": 2184,
      "Ġwall": 2185,
      "stem": 2186,
      "att": 2187,
      "ering": 2188,
      "ĠWor": 2189,
      "Ġfree": 2190,
      "UR": 2191,
      "Ġthinking": 2192,
      "Ġhung": 2193,
      "Ġreason": 2194,
      "One": 2195,
      "Ġmill": 2196,
      "II": 2197,
      "ĠCan": 2198,
      "overed": 2199,
      "ept": 2200,
      "Ġseven": 2201,
      "Ġyellow": 2202,
      "Ġcompany": 2203,
      "Ġsold": 2204,
      "ounds": 2205,
      "Ġwomen": 2206,
      "shall": 2207,
      "ution": 2208,
      "Ġmouth": 2209,
      "ices": 2210,
      "bl": 2211,
      "eared": 2212,
      "ford": 2213,
      "Ġquiet": 2214,
      "Ġchance": 2215,
      "Ġcamp": 2216,
      "uly": 2217,
      "oth": 2218,
      "aced": 2219,
      "ousand": 2220,
      "uary": 2221,
      "iter": 2222,
      "oof": 2223,
      "Ġmod": 2224,
      "Ġopp": 2225,
      "ĠBar": 2226,
      "Ġtakes": 2227,
      "urch": 2228,
      "Ġ2020": 2229,
      "pping": 2230,
      "Ġtoy": 2231,
      "Ġsend": 2232,
      "two": 2233,
      "angu": 2234,
      "cent": 2235,
      "ald": 2236,
      "ĠFr": 2237,
      "acher": 2238,
      "fess": 2239,
      "Ġjump": 2240,
      "Ġpolit": 2241,
      "Ġamong": 2242,
      "iam": 2243,
      "ĠYork": 2244,
      "osp": 2245,
      "Ġpat": 2246,
      "icks": 2247,
      "Ġheld": 2248,
      "ived": 2249,
      "To": 2250,
      "Ġbecome": 2251,
      "ement": 2252,
      "owed": 2253,
      "ĠFrench": 2254,
      "Ġwrite": 2255,
      "ĠLe": 2256,
      "rict": 2257,
      "ĠPar": 2258,
      "Ġliving": 2259,
      "ĠChar": 2260,
      "apan": 2261,
      "Ġpartic": 2262,
      "orm": 2263,
      "entle": 2264,
      "band": 2265,
      "Ġafraid": 2266,
      "Ġtrouble": 2267,
      "TER": 2268,
      "ued": 2269,
      "UN": 2270,
      "alth": 2271,
      "Ġkept": 2272,
      "Ġ?": 2273,
      "Ġap": 2274,
      "unk": 2275,
      "Ġvill": 2276,
      "arch": 2277,
      "Ġroll": 2278,
      "Ġcor": 2279,
      "alright": 2280,
      "Ġthrow": 2281,
      "Ġdarling": 2282,
      "Ġlived": 2283,
      "Ġrunning": 2284,
      "ĠGrand": 2285,
      "olly": 2286,
      "Ġegg": 2287,
      "Ġphone": 2288,
      "Ġpen": 2289,
      "Ġsal": 2290,
      "Ġsitting": 2291,
      "Ġthousand": 2292,
      "Ġwindow": 2293,
      "Ġship": 2294,
      "ract": 2295,
      "RI": 2296,
      "Ġins": 2297,
      "Ġice": 2298,
      "iversity": 2299,
      "Ġhit": 2300,
      "Ġdoctor": 2301,
      "Ġstra": 2302,
      "Ġz": 2303,
      "bs": 2304,
      "ears": 2305,
      "inning": 2306,
      "Ġstep": 2307,
      "Ġ195": 2308,
      "Ġbooks": 2309,
      "Ġstood": 2310,
      "cil": 2311,
      "Ġlov": 2312,
      "ĠYOU": 2313,
      "anger": 2314,
      "Ġpot": 2315,
      "Ġletter": 2316,
      "Ġfootball": 2317,
      "col": 2318,
      "Ġra": 2319,
      "irt": 2320,
      "Ġcorn": 2321,
      "ĠPro": 2322,
      "night": 2323,
      "Ġanswer": 2324,
      "itten": 2325,
      "Ġresp": 2326,
      "Ġmarried": 2327,
      "Ġsomebody": 2328,
      "ium": 2329,
      "co": 2330,
      "Ġfly": 2331,
      "har": 2332,
      "Ġfing": 2333,
      "ĠCap": 2334,
      "Ah": 2335,
      "Ġlo": 2336,
      "CDS": 2337,
      "EL": 2338,
      "ĠCounty": 2339,
      "Ġband": 2340,
      "Ġlad": 2341,
      "LOI": 2342,
      "Ġarm": 2343,
      "ically": 2344,
      "dden": 2345,
      "Ġtomorrow": 2346,
      "Ġdef": 2347,
      "Ġattack": 2348,
      "hold": 2349,
      "ĠJapan": 2350,
      "ange": 2351,
      "Ġusually": 2352,
      "Ġ17": 2353,
      "ĠDon": 2354,
      "Ġ15": 2355,
      "aint": 2356,
      "mas": 2357,
      "ai": 2358,
      "lly": 2359,
      "Ġhours": 2360,
      "Ġbirthday": 2361,
      "aul": 2362,
      "Ġfix": 2363,
      "Ġsoft": 2364,
      "ĠMan": 2365,
      "avy": 2366,
      "Ġobject": 2367,
      "owers": 2368,
      "ĠWorld": 2369,
      "Ġsystem": 2370,
      "Ġton": 2371,
      "Ġda": 2372,
      "Ġtruck": 2373,
      "wered": 2374,
      "bum": 2375,
      "Ġsudden": 2376,
      "Ġ194": 2377,
      "Ġcross": 2378,
      "Ġdaughter": 2379,
      "iddle": 2380,
      "ĠWar": 2381,
      "ĠJanuary": 2382,
      "Ġproblem": 2383,
      "ĠAd": 2384,
      "Ġfil": 2385,
      "mon": 2386,
      "Ġalright": 2387,
      "Ġmer": 2388,
      "Ġmount": 2389,
      "Ġexper": 2390,
      "Ġtouch": 2391,
      "teen": 2392,
      "GRA": 2393,
      "ĠCon": 2394,
      "ional": 2395,
      "Ġhist": 2396,
      "ĠMarch": 2397,
      "ĠX": 2398,
      "ox": 2399,
      "Ġreplied": 2400,
      "Ġsuppose": 2401,
      "Ġnorth": 2402,
      "Ġking": 2403,
      "ĠJune": 2404,
      "Ġnamed": 2405,
      "Ġbath": 2406,
      "ility": 2407,
      "Ġtem": 2408,
      "reen": 2409,
      "Ġsand": 2410,
      "nock": 2411,
      "Ġreport": 2412,
      "ĠDo": 2413,
      "Please": 2414,
      "Ġappro": 2415,
      "Ġcheck": 2416,
      "Ġfrog": 2417,
      "point": 2418,
      "Ġanswered": 2419,
      "Ġlangu": 2420,
      "Ġmot": 2421,
      "ĠEuro": 2422,
      "Ġspecial": 2423,
      "Ġring": 2424,
      "Ġseems": 2425,
      "raz": 2426,
      "Ġkilled": 2427,
      "oman": 2428,
      "Ġhus": 2429,
      "Ġtired": 2430,
      "Ġclim": 2431,
      "ean": 2432,
      "cri": 2433,
      "Ġju": 2434,
      "Ġsto": 2435,
      "ient": 2436,
      "Ġpoints": 2437,
      "ays": 2438,
      "Ġclothes": 2439,
      "Ġdream": 2440,
      "Ġcatch": 2441,
      "hanks": 2442,
      "ugust": 2443,
      "ccess": 2444,
      "vision": 2445,
      "ler": 2446,
      "ude": 2447,
      "Ġknows": 2448,
      "Ġthemselves": 2449,
      "Because": 2450,
      "makes": 2451,
      "Ġblood": 2452,
      "pril": 2453,
      "rop": 2454,
      "ĠEd": 2455,
      "Ġkiss": 2456,
      "Ġpleas": 2457,
      "cer": 2458,
      "ott": 2459,
      "ĠJoe": 2460,
      "ADU": 2461,
      "Ġblock": 2462,
      "ajor": 2463,
      "velop": 2464,
      "ality": 2465,
      "Ġforget": 2466,
      "ked": 2467,
      "Have": 2468,
      "Ġcoup": 2469,
      "Ġreleased": 2470,
      "iff": 2471,
      "Ġwaiting": 2472,
      "IT": 2473,
      "amer": 2474,
      "Ġmonths": 2475,
      "Ġfur": 2476,
      "though": 2477,
      "Ġlow": 2478,
      "AL": 2479,
      "ories": 2480,
      "oop": 2481,
      "ron": 2482,
      "Ġeasy": 2483,
      "Ġgentle": 2484,
      "Ġve": 2485,
      "Every": 2486,
      "itch": 2487,
      "Ġseries": 2488,
      "Ġperhaps": 2489,
      "net": 2490,
      "Ġlives": 2491,
      "Ġpost": 2492,
      "oose": 2493,
      "Ġill": 2494,
      "gue": 2495,
      "par": 2496,
      "Ġstraight": 2497,
      "Ġ12": 2498,
      "AP": 2499,
      "ĠJim": 2500,
      "Some": 2501,
      "actly": 2502,
      "FCH": 2503,
      "Ġdra": 2504,
      "Erm": 2505,
      "Ġwithin": 2506,
      "hello": 2507,
      "Ġcomple": 2508,
      "Ġhar": 2509,
      "Ġyours": 2510,
      "rol": 2511,
      "Ġeye": 2512,
      "ĠGeor": 2513,
      "Ġpassed": 2514,
      "Ġgold": 2515,
      "Ġhusband": 2516,
      "urs": 2517,
      "Ġdeep": 2518,
      "arden": 2519,
      "Ġpossible": 2520,
      "Ġrain": 2521,
      "hant": 2522,
      "unny": 2523,
      "Ġnine": 2524,
      "fast": 2525,
      "Ġalbum": 2526,
      "uit": 2527,
      "Ġsail": 2528,
      "stairs": 2529,
      "Ġgovernment": 2530,
      "com": 2531,
      "Ġtonight": 2532,
      "aged": 2533,
      "Ġwhether": 2534,
      "Ġworked": 2535,
      "Ġspec": 2536,
      "Ġmoved": 2537,
      "Ġcharac": 2538,
      "ĠYeah": 2539,
      "Ġcannot": 2540,
      "Ġdiv": 2541,
      "que": 2542,
      "unic": 2543,
      "hile": 2544,
      "Ġkids": 2545,
      "Ġeating": 2546,
      "ager": 2547,
      "Ġfa": 2548,
      "ctober": 2549,
      "ĠTO": 2550,
      "ĠSouth": 2551,
      "AS": 2552,
      "cient": 2553,
      "Ġfit": 2554,
      "Ġain": 2555,
      "ored": 2556,
      "Ġpress": 2557,
      "Ġfield": 2558,
      "ada": 2559,
      "ĠBritish": 2560,
      "Ġevent": 2561,
      "ances": 2562,
      "Ġforgot": 2563,
      "ĠSw": 2564,
      "ĠPe": 2565,
      "Ġsafe": 2566,
      "avid": 2567,
      "Ġbird": 2568,
      "elen": 2569,
      "Ġproper": 2570,
      "ĠPl": 2571,
      "Ġya": 2572,
      "Ġdoub": 2573,
      "fer": 2574,
      "Ex": 2575,
      "NA": 2576,
      "ĠGo": 2577,
      "Get": 2578,
      "ele": 2579,
      "Ġdanger": 2580,
      "Ġdiffic": 2581,
      "play": 2582,
      "Ġ16": 2583,
      "Ġsounds": 2584,
      "reed": 2585,
      "ĠAugust": 2586,
      "ovember": 2587,
      "Ġsingle": 2588,
      "Ã¡": 2589,
      "Ġforward": 2590,
      "joy": 2591,
      "friend": 2592,
      "Ġshop": 2593,
      "which": 2594,
      "Ġlovely": 2595,
      "Ġcouple": 2596,
      "ulation": 2597,
      "Ġconst": 2598,
      "Ġpolice": 2599,
      "Ġriver": 2600,
      "Ġnoises": 2601,
      "Ġluck": 2602,
      "amb": 2603,
      "Ġnose": 2604,
      "Ġlonger": 2605,
      "CHILD": 2606,
      "ek": 2607,
      "hel": 2608,
      "Ġshoes": 2609,
      "eptember": 2610,
      "Ġdaddy": 2611,
      "Ġhowever": 2612,
      "Ġputs": 2613,
      "Ġslow": 2614,
      "Ġabove": 2615,
      "ĠPhil": 2616,
      "ardon": 2617,
      "Ġchildes": 2618,
      "CHILDES": 2619,
      "Ġlots": 2620,
      "Ġreached": 2621,
      "Ġtoward": 2622,
      "rigin": 2623,
      "cember": 2624,
      "ffect": 2625,
      "Ġ]": 2626,
      "Ġsuccess": 2627,
      "Ġinde": 2628,
      "Ġhors": 2629,
      "ĠCol": 2630,
      "ĠNorth": 2631,
      "ĠEurope": 2632,
      "Ġdad": 2633,
      "lo": 2634,
      "Ġoffice": 2635,
      "Ġtowards": 2636,
      "Ġshot": 2637,
      "Ġexcl": 2638,
      "Ġ193": 2639,
      "Ġboard": 2640,
      "Ġsnow": 2641,
      "gas": 2642,
      "Ġevening": 2643,
      "Ġarms": 2644,
      "Ġfavor": 2645,
      "Ġmember": 2646,
      "uri": 2647,
      "Ġbreat": 2648,
      "ĠAb": 2649,
      "Ġseem": 2650,
      "ask": 2651,
      "Ġvar": 2652,
      "ral": 2653,
      "ooh": 2654,
      "gram": 2655,
      "Ġarri": 2656,
      "Ġdet": 2657,
      "Hello": 2658,
      "Ġputting": 2659,
      "la": 2660,
      "Ġsight": 2661,
      "ging": 2662,
      "aimed": 2663,
      "ĠWell": 2664,
      "Ġ...": 2665,
      "ĠOctober": 2666,
      "aser": 2667,
      "ĠEngland": 2668,
      "ience": 2669,
      "Ġeverybody": 2670,
      "rave": 2671,
      "ĠTH": 2672,
      "Ġnews": 2673,
      "attle": 2674,
      "ĠOne": 2675,
      "ĠFrank": 2676,
      "Ġmist": 2677,
      "ior": 2678,
      "phone": 2679,
      "Ġ*": 2680,
      "Ġbroken": 2681,
      "Ġnational": 2682,
      "ruary": 2683,
      "With": 2684,
      "ebruary": 2685,
      "Maybe": 2686,
      "Of": 2687,
      "ĠEl": 2688,
      "ĠApril": 2689,
      "Ġbott": 2690,
      "Ġwat": 2691,
      "con": 2692,
      "ĠNow": 2693,
      "Ġcaught": 2694,
      "Ġquickly": 2695,
      "Ġseat": 2696,
      "Ġelect": 2697,
      "ĠCal": 2698,
      "ining": 2699,
      "Ġneeds": 2700,
      "Ġfeeling": 2701,
      "Ġreturned": 2702,
      "Ġequ": 2703,
      "Ġmommy": 2704,
      "Ġvisit": 2705,
      "LE": 2706,
      "Ġcow": 2707,
      "âĢĺ": 2708,
      "Ġesc": 2709,
      "Ġhang": 2710,
      "Ġahead": 2711,
      "After": 2712,
      "Ġoper": 2713,
      "Ġcommon": 2714,
      "rat": 2715,
      "ĠNovember": 2716,
      "Ġstation": 2717,
      "terday": 2718,
      "Ġmillion": 2719,
      "urd": 2720,
      "ĠPer": 2721,
      "Ġsecret": 2722,
      "Ġbuilding": 2723,
      "Ġtreat": 2724,
      "Ġjuice": 2725,
      "ĠSh": 2726,
      "ĠJuly": 2727,
      "--------": 2728,
      "Ġterri": 2729,
      "Ch": 2730,
      "ising": 2731,
      "Ġthird": 2732,
      "ĠSam": 2733,
      "Ġdepartment": 2734,
      "Ġhop": 2735,
      "ĠTo": 2736,
      "Ġabs": 2737,
      "udd": 2738,
      "ĠPres": 2739,
      "ĠSeptember": 2740,
      "itchen": 2741,
      "ĠĠĠĠĠĠĠĠĠĠĠĠĠĠĠĠ": 2742,
      "ggest": 2743,
      "Ġglass": 2744,
      "yl": 2745,
      "Any": 2746,
      "Ġclos": 2747,
      "Ġeffect": 2748,
      "Ġengine": 2749,
      "Ġformer": 2750,
      "Ġdest": 2751,
      "ĠAN": 2752,
      "gest": 2753,
      "Ġdevelop": 2754,
      "Ġdrive": 2755,
      "Ġplaces": 2756,
      "Ġtelling": 2757,
      "Ġworry": 2758,
      "Ġcry": 2759,
      "ode": 2760,
      "ĠDecember": 2761,
      "ips": 2762,
      "Ġduck": 2763,
      "Ġla": 2764,
      "ĠBen": 2765,
      "ĠAfter": 2766,
      "Ġadm": 2767,
      "Ġparent": 2768,
      "noon": 2769,
      "vocal": 2770,
      "Ġhuman": 2771,
      "ondon": 2772,
      "Ġfear": 2773,
      "ĠDr": 2774,
      "Ġanyway": 2775,
      "AM": 2776,
      "Ġsuggest": 2777,
      "ĠTr": 2778,
      "Ġcirc": 2779,
      "Ġchanged": 2780,
      "Ġshar": 2781,
      "ĠMc": 2782,
      "ended": 2783,
      "ample": 2784,
      "some": 2785,
      "Ġtelevision": 2786,
      "was": 2787,
      "Ġfill": 2788,
      "ĠMin": 2789,
      "emy": 2790,
      "Ġwarm": 2791,
      "Ġstanding": 2792,
      "IC": 2793,
      "Ġstat": 2794,
      "ĠMy": 2795,
      "Ġtrees": 2796,
      "ĠCaptain": 2797,
      "Ġann": 2798,
      "ander": 2799,
      "ĠChristmas": 2800,
      "Ġenjoy": 2801,
      "eal": 2802,
      "Ġstopped": 2803,
      "Ġclub": 2804,
      "ĠFebruary": 2805,
      "Ġstri": 2806,
      "Ġpublic": 2807,
      "Ġcover": 2808,
      "ĠComm": 2809,
      "Ġmeant": 2810,
      "with": 2811,
      "Ġnearly": 2812,
      "Ġknock": 2813,
      "Ġcos": 2814,
      "Ġstrange": 2815,
      "ĠIN": 2816,
      "Ġshout": 2817,
      "bor": 2818,
      "Ġcost": 2819,
      "iny": 2820,
      "Ġcal": 2821,
      "Ġvillage": 2822,
      "Ġopened": 2823,
      "Ġkitchen": 2824,
      "Ġcray": 2825,
      "Ġhungry": 2826,
      "Ġview": 2827,
      "Ġ11": 2828,
      "isten": 2829,
      "Ġplayer": 2830,
      "llustr": 2831,
      "Ġbuilt": 2832,
      "ray": 2833,
      "icken": 2834,
      "Ġanyone": 2835,
      "ĠOF": 2836,
      "Ġdisapp": 2837,
      "Ġcareful": 2838,
      "Ġbroke": 2839,
      "Ġest": 2840,
      "Ġbab": 2841,
      "Ġwhom": 2842,
      "ĠMary": 2843,
      "omp": 2844,
      "ffic": 2845,
      "Ġorgan": 2846,
      "Ġregion": 2847,
      "ien": 2848,
      "Ġprofess": 2849,
      "Ġisland": 2850,
      "Ġlie": 2851,
      "ĠUniversity": 2852,
      "Ġdecided": 2853,
      "Ġmis": 2854,
      "Ġwild": 2855,
      "Ġbow": 2856,
      "Ġled": 2857,
      "Ġbreakfast": 2858,
      "Ġwhatever": 2859,
      "Ġdem": 2860,
      "Ġride": 2861,
      "Ġorigin": 2862,
      "Ġsave": 2863,
      "Ġsupposed": 2864,
      "Ġinstead": 2865,
      "Ġsupport": 2866,
      "Ġfollowed": 2867,
      "Ġdat": 2868,
      "Ġsol": 2869,
      "omb": 2870,
      "ament": 2871,
      "uk": 2872,
      "rill": 2873,
      "Ġindeed": 2874,
      "ĠAm": 2875,
      "Ġcarry": 2876,
      "Ġdirect": 2877,
      "Ġafternoon": 2878,
      "rit": 2879,
      "Ġcool": 2880,
      "Ġprison": 2881,
      "Ġfellow": 2882,
      "yn": 2883,
      "Ġbes": 2884,
      "Ġwritten": 2885,
      "mother": 2886,
      "unity": 2887,
      "Ġcareer": 2888,
      "Ġstore": 2889,
      "ĠGu": 2890,
      "ustral": 2891,
      "king": 2892,
      ".'": 2893,
      "ĠLondon": 2894,
      "Ġtest": 2895,
      "your": 2896,
      "cially": 2897,
      "mbers": 2898,
      "Ġseason": 2899,
      "vol": 2900,
      "ceed": 2901,
      "maybe": 2902,
      "idence": 2903,
      "Ġtrack": 2904,
      "Ġgarden": 2905,
      "ror": 2906,
      "Ġsuper": 2907,
      "ospital": 2908,
      "ĠSha": 2909,
      "Ġturns": 2910,
      "Ġbright": 2911,
      "ĠWh": 2912,
      "Ġcake": 2913,
      "Ġperfect": 2914,
      "OM": 2915,
      "Ġteacher": 2916,
      "Ġav": 2917,
      "THE": 2918,
      "Ġposition": 2919,
      "Ġmiles": 2920,
      "Ġpieces": 2921,
      "urg": 2922,
      "Ġweeks": 2923,
      "looks": 2924,
      "ffee": 2925,
      "ĠItal": 2926,
      "Ġlearn": 2927,
      "Ġbread": 2928,
      "Ġrequ": 2929,
      "Ġpupp": 2930,
      "ills": 2931,
      "uel": 2932,
      "Ġcre": 2933,
      "Ġheavy": 2934,
      "iron": 2935,
      "Ġmiddle": 2936,
      "Ġsmil": 2937,
      "Ġprotect": 2938,
      "Ġpack": 2939,
      "say": 2940,
      "lie": 2941,
      "Ġworks": 2942,
      "Ġru": 2943,
      "Ġexactly": 2944,
      "Ġswim": 2945,
      "Ġfollowing": 2946,
      "Ġyesterday": 2947,
      "ĠPeter": 2948,
      "Ġâ": 2949,
      "Ġtruth": 2950,
      "Ġparticular": 2951,
      "Wh": 2952,
      "ya": 2953,
      "Ġ14": 2954,
      "Ġusing": 2955,
      "Ġut": 2956,
      "pes": 2957,
      "ED": 2958,
      "would": 2959,
      "Ġadded": 2960,
      "umm": 2961,
      "Ġsca": 2962,
      "Ġbelong": 2963,
      "bles": 2964,
      "Ġbought": 2965,
      "Ġpark": 2966,
      "Ġrad": 2967,
      "Ġconc": 2968,
      "time": 2969,
      "Ġquar": 2970,
      "val": 2971,
      "ĠSome": 2972,
      "ushed": 2973,
      "Ġhappens": 2974,
      "Ġsus": 2975,
      "oul": 2976,
      "Ġsick": 2977,
      "Ġ!": 2978,
      "Ġ13": 2979,
      "rodu": 2980,
      "ĠCity": 2981,
      "Ġearth": 2982,
      "Ġah": 2983,
      "give": 2984,
      "Ġappear": 2985,
      "Ġcertainly": 2986,
      "ĠMommy": 2987,
      "Ġcomplete": 2988,
      "ĠNot": 2989,
      "Ġval": 2990,
      "GH": 2991,
      "singing": 2992,
      "ĠAf": 2993,
      "ician": 2994,
      "ĠWest": 2995,
      "Ġtape": 2996,
      "Ġcast": 2997,
      "Ġnin": 2998,
      "empt": 2999,
      "ĠMart": 3000,
      "box": 3001,
      "ĠAustral": 3002,
      "Ġang": 3003,
      "gar": 3004,
      "Ġdecl": 3005,
      "ula": 3006,
      "Ġprogram": 3007,
      "Ġinform": 3008,
      "ĠDan": 3009,
      "Ġwhis": 3010,
      "uthor": 3011,
      "Ġworth": 3012,
      "ĠRuss": 3013,
      "Ġfarm": 3014,
      "Ġpract": 3015,
      "Ġgiving": 3016,
      "ĠRep": 3017,
      "Ġexcept": 3018,
      "dom": 3019,
      "Ġlau": 3020,
      "Ġfort": 3021,
      "Ġwrote": 3022,
      "Ġstreet": 3023,
      "Ġhasn": 3024,
      "Ġcompet": 3025,
      "'.": 3026,
      "ground": 3027,
      "ĠWhy": 3028,
      "ales": 3029,
      "Ġdi": 3030,
      "Ġbutter": 3031,
      "board": 3032,
      "Ġsouth": 3033,
      "child": 3034,
      "Ġwhose": 3035,
      "Ġdoubt": 3036,
      "isc": 3037,
      "ege": 3038,
      "Ġbottom": 3039,
      "iday": 3040,
      "See": 3041,
      "Or": 3042,
      "ĠNational": 3043,
      "10": 3044,
      "ĠLord": 3045,
      "nel": 3046,
      "resent": 3047,
      "ency": 3048,
      "Ġlanguage": 3049,
      "andy": 3050,
      "Ġfigure": 3051,
      "asp": 3052,
      "Ġprop": 3053,
      "work": 3054,
      "ĠIndian": 3055,
      "Ġwatching": 3056,
      "etty": 3057,
      "SI": 3058,
      "Ġmad": 3059,
      "ĠPat": 3060,
      "Ġpretend": 3061,
      "ĠBy": 3062,
      "Ġleaving": 3063,
      "ichael": 3064,
      "Ġholding": 3065,
      "Ġlunch": 3066,
      "Ġdev": 3067,
      "ishing": 3068,
      "Ġexample": 3069,
      "Ġdistrict": 3070,
      "ĠWith": 3071,
      "Ġmembers": 3072,
      "Ġcop": 3073,
      "Ġgeneral": 3074,
      "Ġservice": 3075,
      "Ġsomewhere": 3076,
      "ĠChi": 3077,
      "Ġcaptain": 3078,
      "ouncil": 3079,
      "ÃŃ": 3080,
      "Ġought": 3081,
      "Ġchurch": 3082,
      "itted": 3083,
      "Ġloc": 3084,
      "Ġsell": 3085,
      "Ġpa": 3086,
      "Ġlegs": 3087,
      "Ġban": 3088,
      "ashing": 3089,
      "lex": 3090,
      "igg": 3091,
      "US": 3092,
      "Ġfinish": 3093,
      "tered": 3094,
      "Ġbase": 3095,
      "Ġneck": 3096,
      "Ġlevel": 3097,
      "ift": 3098,
      "Ġfail": 3099,
      "Ġmur": 3100,
      "Ġmaster": 3101,
      "Ġhig": 3102,
      "arty": 3103,
      "Ġcharacter": 3104,
      "Ġemp": 3105,
      "roll": 3106,
      "izz": 3107,
      "Ġbrown": 3108,
      "Take": 3109,
      "Ġhistory": 3110,
      "house": 3111,
      "Ġtick": 3112,
      "wow": 3113,
      "Ġstuck": 3114,
      "Ġmach": 3115,
      "Ġdifficult": 3116,
      "Ġexclaimed": 3117,
      "Daddy": 3118,
      "Ġhol": 3119,
      "Ġspace": 3120,
      "Ġbusy": 3121,
      "Ġconsider": 3122,
      "Ġreceived": 3123,
      "Ġorange": 3124,
      "Ġsummer": 3125,
      "has": 3126,
      "ogn": 3127,
      "Ġanymore": 3128,
      "CHAP": 3129,
      "bing": 3130,
      "light": 3131,
      "Ġlaughs": 3132,
      "sit": 3133,
      "iers": 3134,
      "Ġcarried": 3135,
      "CHAPTER": 3136,
      "Ġanybody": 3137,
      "Wait": 3138,
      "erry": 3139,
      "ĠĠĠĠĠĠ": 3140,
      "ET": 3141,
      "ressed": 3142,
      "Ġcause": 3143,
      "Ġmoving": 3144,
      "ille": 3145,
      "ancy": 3146,
      "Ġimag": 3147,
      "Ġdefe": 3148,
      "aff": 3149,
      "Ġpictures": 3150,
      "Ġdescri": 3151,
      "Ġparents": 3152,
      "ified": 3153,
      "Ġtrust": 3154,
      "bers": 3155,
      "cuse": 3156,
      "ording": 3157,
      "Ġtail": 3158,
      "Ġspir": 3159,
      "off": 3160,
      "Ġlift": 3161,
      "Ġcond": 3162,
      "11": 3163,
      "Ġcab": 3164,
      "Ġtast": 3165,
      "ky": 3166,
      "ĠPresident": 3167,
      "Ġsense": 3168,
      "ounter": 3169,
      "Ġvi": 3170,
      "ĠSe": 3171,
      "Ġresult": 3172,
      "ĠPaul": 3173,
      "Ġhole": 3174,
      "Ġflowers": 3175,
      "turn": 3176,
      "Ġ30": 3177,
      "Ġcoffee": 3178,
      "ĠDavid": 3179,
      "Ġincluding": 3180,
      "itty": 3181,
      "Ġcompan": 3182,
      "Ġhospital": 3183,
      "Ġreach": 3184,
      "Ġcommune": 3185,
      "Ġspoke": 3186,
      "pecially": 3187,
      "Ġeveryone": 3188,
      "Illustr": 3189,
      "Ġkn": 3190,
      "Ġsuddenly": 3191,
      "ased": 3192,
      "Ġneigh": 3193,
      "Sh": 3194,
      "His": 3195,
      "ĠOr": 3196,
      "ti": 3197,
      "ino": 3198,
      "mpions": 3199,
      "Ġsad": 3200,
      "Ġport": 3201,
      "Ġburn": 3202,
      "Ġstru": 3203,
      "Ġhast": 3204,
      "Ġaccept": 3205,
      "Ġhoney": 3206,
      "Ġfifty": 3207,
      "Ġmajor": 3208,
      "ĠNe": 3209,
      "Ġappeared": 3210,
      "uation": 3211,
      "ĠThese": 3212,
      "Ġtot": 3213,
      "ĠGeorge": 3214,
      "ĠGood": 3215,
      "Ġcomfort": 3216,
      "Ġperfor": 3217,
      "arr": 3218,
      "Ġlock": 3219,
      "ĠAmerica": 3220,
      "prise": 3221,
      "Cl": 3222,
      ",--": 3223,
      "Ġpopulation": 3224,
      "Ġcard": 3225,
      "Ġ#": 3226,
      "Ġord": 3227,
      "Ġfurther": 3228,
      "Ġbeginning": 3229,
      "rupt": 3230,
      "Ġplays": 3231,
      "iger": 3232,
      "Will": 3233,
      "raph": 3234,
      "Ġconvers": 3235,
      "ĠMother": 3236,
      "points": 3237,
      "Ġweren": 3238,
      "Ġanimal": 3239,
      "view": 3240,
      "sings": 3241,
      "whis": 3242,
      "Thanks": 3243,
      "riage": 3244,
      "Ġbank": 3245,
      "ĠLou": 3246,
      "Ġseeing": 3247,
      "Ġcontain": 3248,
      "ais": 3249,
      "Ġthirty": 3250,
      "rel": 3251,
      "Ġallowed": 3252,
      "rem": 3253,
      "Ġhorses": 3254,
      "Ġrul": 3255,
      "OW": 3256,
      "Ġcars": 3257,
      "of": 3258,
      "iced": 3259,
      "Ġwalked": 3260,
      "clock": 3261,
      "Ġrecogn": 3262,
      "iod": 3263,
      "ases": 3264,
      "ĠBrown": 3265,
      "Ġ$": 3266,
      "Ġmat": 3267,
      "Ġvol": 3268,
      "gasps": 3269,
      "Ġcurrent": 3270,
      "Ġrace": 3271,
      "ĠLea": 3272,
      "ĠMark": 3273,
      "acing": 3274,
      "ĠSte": 3275,
      "ĠMe": 3276,
      "Ġcontinued": 3277,
      "Ġdesign": 3278,
      "estern": 3279,
      "Ġspot": 3280,
      "Ġcorner": 3281,
      "ï¿½ï¿½ï¿½ï¿½": 3282,
      "Illustration": 3283,
      "Ġcollect": 3284,
      "ĠMag": 3285,
      "Ġbottle": 3286,
      "Ġmix": 3287,
      "will": 3288,
      "Ġpounds": 3289,
      "sy": 3290,
      "tell": 3291,
      "ĠCent": 3292,
      "Ġjour": 3293,
      "Ġlose": 3294,
      "ghed": 3295,
      "round": 3296,
      "ume": 3297,
      "ization": 3298,
      "Ġmid": 3299,
      "Ġdam": 3300,
      "chan": 3301,
      "under": 3302,
      "Ġpuzz": 3303,
      "Ġlikes": 3304,
      "ggy": 3305,
      "Ġloud": 3306,
      "Ġnatur": 3307,
      "Sorry": 3308,
      "Ġvide": 3309,
      "Ġwalking": 3310,
      "ae": 3311,
      "Ġbeat": 3312,
      "ket": 3313,
      "Ġcrying": 3314,
      "ades": 3315,
      "ĠMad": 3316,
      "Ġmeeting": 3317,
      "Ġpriv": 3318,
      "ĠAunt": 3319,
      "Ġaccount": 3320,
      "Ġgames": 3321,
      "eally": 3322,
      "Ġremark": 3323,
      "ĠEx": 3324,
      "Ġprin": 3325,
      "Ġdropped": 3326,
      "AY": 3327,
      "Ġtype": 3328,
      "acy": 3329,
      "Ġspend": 3330,
      "Ġpock": 3331,
      "pris": 3332,
      "pper": 3333,
      "lin": 3334,
      "ounced": 3335,
      "Tell": 3336,
      "Ġwide": 3337,
      "izes": 3338,
      "wood": 3339,
      "Ġvict": 3340,
      "Ġattention": 3341,
      "Ġobs": 3342,
      "Ġfeed": 3343,
      "Ġself": 3344,
      "olute": 3345,
      "ĠTe": 3346,
      "Ġ25": 3347,
      "cher": 3348,
      "cell": 3349,
      "aves": 3350,
      "Ġcamer": 3351,
      "gu": 3352,
      "tr": 3353,
      "Ġtall": 3354,
      "roy": 3355,
      "Ġpopular": 3356,
      "elve": 3357,
      "resh": 3358,
      "ID": 3359,
      "Ġpresident": 3360,
      "ission": 3361,
      "Ġentire": 3362,
      "Ġshut": 3363,
      "Ġ2018": 3364,
      "nie": 3365,
      "ĠHelen": 3366,
      "Ġdistance": 3367,
      "Ġpicks": 3368,
      "Ġgrass": 3369,
      "gie": 3370,
      "Ġelep": 3371,
      "ĠBill": 3372,
      "Ġletters": 3373,
      "Ġate": 3374,
      "Ġholds": 3375,
      "Ġmoon": 3376,
      "Ġrespect": 3377,
      "Ġauthor": 3378,
      "Ġfle": 3379,
      "want": 3380,
      "please": 3381,
      "Ġ192": 3382,
      "ĠSm": 3383,
      "Ġtor": 3384,
      "uture": 3385,
      "unicip": 3386,
      "Ġlocal": 3387,
      "Ġcompl": 3388,
      "Ġcreated": 3389,
      "Ġgen": 3390,
      "ously": 3391,
      "noise": 3392,
      "Ġalthough": 3393,
      "Ġdance": 3394,
      "Ġitself": 3395,
      "ĠGl": 3396,
      "Ġshape": 3397,
      "Ġthou": 3398,
      "Ġinformation": 3399,
      "Ġdry": 3400,
      "Ġpush": 3401,
      "Ġnecess": 3402,
      "Ġcounty": 3403,
      "ĠBlack": 3404,
      "Un": 3405,
      "ĠAfric": 3406,
      "ribut": 3407,
      "Ġbased": 3408,
      "Ġwonderful": 3409,
      "Ġcentury": 3410,
      "Ġdelight": 3411,
      "Ġlaughed": 3412,
      "Ġhealth": 3413,
      "yep": 3414,
      "itions": 3415,
      "By": 3416,
      "rian": 3417,
      "aven": 3418,
      "vin": 3419,
      "Car": 3420,
      "bert": 3421,
      "Ġlim": 3422,
      "Ġjack": 3423,
      "CAR": 3424,
      "OK": 3425,
      "Ġbur": 3426,
      "Ġplate": 3427,
      "Ġsilence": 3428,
      "ĠSpan": 3429,
      "Ġliked": 3430,
      "Ġcontrol": 3431,
      "Ġleaves": 3432,
      "Ġteeth": 3433,
      "ression": 3434,
      "ilar": 3435,
      "ĠSu": 3436,
      "Ġgar": 3437,
      "olved": 3438,
      "uty": 3439,
      "Ġlab": 3440,
      "baby": 3441,
      "Ġfavorite": 3442,
      "Re": 3443,
      "str": 3444,
      "raft": 3445,
      "Ġmatch": 3446,
      "Ġshouldn": 3447,
      "het": 3448,
      "Ġwet": 3449,
      "medi": 3450,
      "Ġdie": 3451,
      "aps": 3452,
      "Like": 3453,
      "uge": 3454,
      "Ġ2021": 3455,
      "Ar": 3456,
      "ĠEar": 3457,
      "18": 3458,
      "abbit": 3459,
      "itive": 3460,
      "por": 3461,
      "ograp": 3462,
      "hys": 3463,
      "Per": 3464,
      "Ġvers": 3465,
      "Ġjud": 3466,
      "Ġmention": 3467,
      "imin": 3468,
      "Ġcream": 3469,
      "ĠPol": 3470,
      "Ġgrew": 3471,
      "ĠLet": 3472,
      "Ġinteresting": 3473,
      "Ġinterested": 3474,
      "Ġperiod": 3475,
      "hips": 3476,
      "pered": 3477,
      "Mar": 3478,
      "obert": 3479,
      "ĠQue": 3480,
      "ĠâĮ": 3481,
      "Ġcapital": 3482,
      "Ġcommand": 3483,
      "VE": 3484,
      "ston": 3485,
      "Ġwriting": 3486,
      "Ġparts": 3487,
      "eddy": 3488,
      "Ġforce": 3489,
      "ply": 3490,
      "Ġsky": 3491,
      "ato": 3492,
      "12": 3493,
      "dered": 3494,
      "Ġsilver": 3495,
      "ires": 3496,
      "Ġpaid": 3497,
      "Ġchicken": 3498,
      "Ġcheese": 3499,
      "itz": 3500,
      "Ġquestions": 3501,
      "af": 3502,
      "icy": 3503,
      "ĠGermany": 3504,
      "name": 3505,
      "Ġarmy": 3506,
      "antly": 3507,
      "ology": 3508,
      "ads": 3509,
      "Ġears": 3510,
      "Ġwel": 3511,
      "ĠMot": 3512,
      "ĠQu": 3513,
      "wait": 3514,
      "Ġcell": 3515,
      "ometimes": 3516,
      "Ġfuture": 3517,
      "._": 3518,
      "field": 3519,
      "set": 3520,
      "wor": 3521,
      "Ġkey": 3522,
      "Gr": 3523,
      "Ġalive": 3524,
      "lean": 3525,
      "RY": 3526,
      "iment": 3527,
      "Ġcrow": 3528,
      "ĠJust": 3529,
      "Ġserious": 3530,
      "Ġfamous": 3531,
      "ĠAND": 3532,
      "astic": 3533,
      "Ġnames": 3534,
      "ĠWilliam": 3535,
      "know": 3536,
      "lt": 3537,
      "oom": 3538,
      "Ġlaughing": 3539,
      "ius": 3540,
      "Ġincre": 3541,
      "Ġstars": 3542,
      "Ġshowed": 3543,
      "Ġanx": 3544,
      "icro": 3545,
      "ustom": 3546,
      "Ġneeded": 3547,
      "fly": 3548,
      "bout": 3549,
      "Ġsle": 3550,
      "Ġstarts": 3551,
      "wanna": 3552,
      "reg": 3553,
      "Mommy": 3554,
      "ĠRoman": 3555,
      "Ġphot": 3556,
      "eneral": 3557,
      "Ġhall": 3558,
      "Ġnorm": 3559,
      "Ġexam": 3560,
      "soci": 3561,
      "ivil": 3562,
      "Ġcrayon": 3563,
      "isted": 3564,
      "ancing": 3565,
      "Ġfinally": 3566,
      "pardon": 3567,
      "Ġcharge": 3568,
      "Ġloved": 3569,
      "omething": 3570,
      "iforn": 3571,
      "Ġgives": 3572,
      "âĮĭ": 3573,
      "ĠHarry": 3574,
      "Ġattempt": 3575,
      "gs": 3576,
      "ids": 3577,
      "Ġaut": 3578,
      "ĠFraser": 3579,
      "Ġbell": 3580,
      "Ġeggs": 3581,
      "irm": 3582,
      "Ġpray": 3583,
      "itary": 3584,
      "ĠMon": 3585,
      "Ġdig": 3586,
      "Ġhous": 3587,
      "Ġdrop": 3588,
      "Ġwash": 3589,
      "Ġofficer": 3590,
      "Ġreading": 3591,
      "Ġmem": 3592,
      "Ġlying": 3593,
      "viously": 3594,
      "Ġblow": 3595,
      "ĠDad": 3596,
      "Ġsurpris": 3597,
      "uhoh": 3598,
      "Ġbirds": 3599,
      "osaur": 3600,
      "Ġspeed": 3601,
      "Ġtrad": 3602,
      "Ġnone": 3603,
      "Ġsurprise": 3604,
      "Ġclosed": 3605,
      "Ġplant": 3606,
      "ites": 3607,
      "Ġhide": 3608,
      "ifornia": 3609,
      "Ġthee": 3610,
      "ashed": 3611,
      "ĠHen": 3612,
      "Ġleng": 3613,
      "Hi": 3614,
      "Ġho": 3615,
      "Ġbene": 3616,
      "Ġsubject": 3617,
      "Ġbelow": 3618,
      "âĮī": 3619,
      "Ġaccident": 3620,
      "omes": 3621,
      "isf": 3622,
      "Ġhy": 3623,
      "Ġpink": 3624,
      "Ġfilm": 3625,
      ",'": 3626,
      "ploy": 3627,
      "ument": 3628,
      "Ġprep": 3629,
      "ĠUncle": 3630,
      "ĠJames": 3631,
      "ĠâĢĺ": 3632,
      "Ġasking": 3633,
      "Mum": 3634,
      "Ġconne": 3635,
      "ĠHowever": 3636,
      "ĠLu": 3637,
      "Ġmm": 3638,
      "orts": 3639,
      "Ġcapt": 3640,
      "Ġpal": 3641,
      "Ġthanks": 3642,
      "Ġsinging": 3643,
      "Ġiss": 3644,
      "Ġ24": 3645,
      "Ġhost": 3646,
      "ĠPark": 3647,
      "Ġrose": 3648,
      "Ġtur": 3649,
      "Ġcamera": 3650,
      "car": 3651,
      "Ġconversation": 3652,
      "chi": 3653,
      "ichard": 3654,
      "ĠâĨ": 3655,
      "eh": 3656,
      "Ġinvest": 3657,
      "aper": 3658,
      "Ġcomput": 3659,
      "Ġscared": 3660,
      "Ġsmell": 3661,
      "take": 3662,
      "gged": 3663,
      "ĠWhere": 3664,
      "Ġbridge": 3665,
      "SO": 3666,
      "hood": 3667,
      "ĠBilly": 3668,
      "Ġshare": 3669,
      "Ġfinger": 3670,
      "ĠGreat": 3671,
      "Ġdue": 3672,
      "ĠRiver": 3673,
      "ination": 3674,
      "Ġchief": 3675,
      "Ġwheel": 3676,
      "Ġslowly": 3677,
      "ĠHouse": 3678,
      "Ġvideo": 3679,
      "Ġproblems": 3680,
      "Ġsmile": 3681,
      "arah": 3682,
      "ĠCome": 3683,
      "Ġinfl": 3684,
      "Ġtit": 3685,
      "Ne": 3686,
      "ATT": 3687,
      "lymp": 3688,
      "oots": 3689,
      "ĠCalifornia": 3690,
      "Ġrepe": 3691,
      "Ġbasket": 3692,
      "\")": 3693,
      "Ġcourt": 3694,
      "Give": 3695,
      "ingly": 3696,
      "eep": 3697,
      "ĠSy": 3698,
      "Ġterrible": 3699,
      "Ġpeace": 3700,
      "ether": 3701,
      "_,": 3702,
      "Sure": 3703,
      "aching": 3704,
      "ppy": 3705,
      "Ġmunicip": 3706,
      "Ġrub": 3707,
      "Ġep": 3708,
      "iles": 3709,
      "eder": 3710,
      "Ġbigger": 3711,
      "lect": 3712,
      "Ġ2019": 3713,
      "Ġshows": 3714,
      "Ġremain": 3715,
      "Ġasleep": 3716,
      "three": 3717,
      "Ġdirection": 3718,
      "15": 3719,
      "Ġactiv": 3720,
      "Ġpet": 3721,
      "asure": 3722,
      "Stop": 3723,
      "Ġextra": 3724,
      "iller": 3725,
      "ili": 3726,
      "Ġeduc": 3727,
      "Ġimmedi": 3728,
      "ico": 3729,
      "Ġespecially": 3730,
      "Ġï¿½": 3731,
      "Ġcountries": 3732,
      "Ġmass": 3733,
      "alley": 3734,
      "ding": 3735,
      "Ġsepar": 3736,
      "Ġpromise": 3737,
      "Ġspecies": 3738,
      "Listen": 3739,
      "ĠWho": 3740,
      "wise": 3741,
      "Ġspl": 3742,
      "Ġfright": 3743,
      "Ġhelped": 3744,
      "ably": 3745,
      "kin": 3746,
      "nes": 3747,
      "uten": 3748,
      "These": 3749,
      "Ġserved": 3750,
      "Ġfol": 3751,
      "ĠParty": 3752,
      "Ġpicked": 3753,
      "Ġshore": 3754,
      "Sp": 3755,
      "ipe": 3756,
      "Ġnobody": 3757,
      "Ġcoat": 3758,
      "Ġbreath": 3759,
      "Ġstage": 3760,
      "cious": 3761,
      "ica": 3762,
      "ĠEm": 3763,
      "Ġapple": 3764,
      "Ġmachine": 3765,
      "back": 3766,
      "ĠOlymp": 3767,
      "yle": 3768,
      "ĠCarl": 3769,
      "ĠMor": 3770,
      "Ġpocket": 3771,
      "rey": 3772,
      "yond": 3773,
      "anced": 3774,
      "arm": 3775,
      "Ġvan": 3776,
      "Ġpig": 3777,
      "ĠRed": 3778,
      "Ġsheep": 3779,
      "Ġ(\"": 3780,
      "ĠUS": 3781,
      "rs": 3782,
      "Ġadult": 3783,
      "30": 3784,
      "Ġspent": 3785,
      "Ġhardly": 3786,
      "Ġwest": 3787,
      "Peter": 3788,
      "Ġfingers": 3789,
      "ours": 3790,
      "ĠRob": 3791,
      "ĠIndia": 3792,
      "Ġslight": 3793,
      "Ġtalked": 3794,
      "Ġlearned": 3795,
      "ka": 3796,
      "va": 3797,
      "pose": 3798,
      "epend": 3799,
      "ĠSund": 3800,
      "Ġjoined": 3801,
      "ĠSec": 3802,
      "inite": 3803,
      "Ġrap": 3804,
      "Ġforth": 3805,
      "Ġpaint": 3806,
      "Ġfresh": 3807,
      "ĠSir": 3808,
      "Ġ2017": 3809,
      "Ġcovered": 3810,
      "Ġrepresent": 3811,
      "elle": 3812,
      "Ġtow": 3813,
      "Ġrob": 3814,
      "Ġamount": 3815,
      "14": 3816,
      "FAD": 3817,
      "Ġways": 3818,
      "uses": 3819,
      "Ġchocol": 3820,
      "uts": 3821,
      "Ġpers": 3822,
      "da": 3823,
      "Ġsleeping": 3824,
      "Ġdogs": 3825,
      "gel": 3826,
      "ida": 3827,
      "Ġpolitician": 3828,
      "ĠBetty": 3829,
      "Ġsimilar": 3830,
      "Ġtwelve": 3831,
      "Ġchoo": 3832,
      "Nothing": 3833,
      "Ġinclude": 3834,
      "Ġprocess": 3835,
      "Ġcaused": 3836,
      "olf": 3837,
      "Ġbattle": 3838,
      "Ġforest": 3839,
      "hand": 3840,
      "ĠMa": 3841,
      "rect": 3842,
      "Ġturning": 3843,
      "Ġsituation": 3844,
      "ĠCo": 3845,
      "ĠBon": 3846,
      "cience": 3847,
      "Ġolder": 3848,
      "Me": 3849,
      "Two": 3850,
      "conom": 3851,
      "lands": 3852,
      "outs": 3853,
      "Ġlikely": 3854,
      "ville": 3855,
      "leanor": 3856,
      "Ġspread": 3857,
      "ĠOf": 3858,
      "hem": 3859,
      "aker": 3860,
      "Ġentered": 3861,
      "ums": 3862,
      "Ġterm": 3863,
      "olutely": 3864,
      "Really": 3865,
      "Would": 3866,
      "atic": 3867,
      "ests": 3868,
      "Ġstudy": 3869,
      "erve": 3870,
      "watch": 3871,
      "ĠEast": 3872,
      "Ġviol": 3873,
      "ĠMom": 3874,
      "Bl": 3875,
      "Ġver": 3876,
      "Ġconcern": 3877,
      "Ġdin": 3878,
      "ĠJul": 3879,
      "LA": 3880,
      "ils": 3881,
      "hire": 3882,
      "Man": 3883,
      "Ġcomb": 3884,
      "ĠLeague": 3885,
      "Ġfem": 3886,
      "Ġstone": 3887,
      "Ġscar": 3888,
      "Ġrid": 3889,
      "Ġspoon": 3890,
      "Ġuncle": 3891,
      "Ġaff": 3892,
      "ĠDor": 3893,
      "Ġmountain": 3894,
      "Ġsatisf": 3895,
      "ption": 3896,
      "Ġdrawing": 3897,
      "Ġ2022": 3898,
      "Ġpubl": 3899,
      "Very": 3900,
      "ĠAnt": 3901,
      "Ġoccas": 3902,
      "atives": 3903,
      "From": 3904,
      "pers": 3905,
      "Ġtend": 3906,
      "Ġsearch": 3907,
      "ĠMichael": 3908,
      "ference": 3909,
      "ushing": 3910,
      "Ġtour": 3911,
      "TH": 3912,
      "Ġstories": 3913,
      "order": 3914,
      "illa": 3915,
      "Ġfre": 3916,
      "aded": 3917,
      "Ġris": 3918,
      "Ġelephant": 3919,
      "ipped": 3920,
      "Ġguard": 3921,
      "Ġdollars": 3922,
      "Ġrail": 3923,
      "Ġcalling": 3924,
      "Ġjoin": 3925,
      "Ġspring": 3926,
      "ĠGovern": 3927,
      "Ġblank": 3928,
      "ns": 3929,
      "cul": 3930,
      "oming": 3931,
      "Ġwelcome": 3932,
      "esus": 3933,
      "Ġcircle": 3934,
      "Ġworse": 3935,
      "UNK": 3936,
      "anda": 3937,
      "reet": 3938,
      "ĠSer": 3939,
      "17": 3940,
      "iant": 3941,
      "Ġbroad": 3942,
      "ĠBobby": 3943,
      "ita": 3944,
      "reek": 3945,
      "Ġmeat": 3946,
      "Ġnatural": 3947,
      "Ġcand": 3948,
      "Ġdeclared": 3949,
      "Ġsize": 3950,
      "istory": 3951,
      "Ġenemy": 3952,
      "Ġrich": 3953,
      "ĠJapanese": 3954,
      "Ġgas": 3955,
      "razy": 3956,
      "Ġupstairs": 3957,
      "down": 3958,
      "ĠAre": 3959,
      "Ġenc": 3960,
      "inary": 3961,
      "Ġthy": 3962,
      "Ġallow": 3963,
      "Ġexplain": 3964,
      "'?": 3965,
      "big": 3966,
      "Ġemb": 3967,
      "Ġtrip": 3968,
      "Ġearli": 3969,
      "ĠEll": 3970,
      "ĠHere": 3971,
      "Ġforty": 3972,
      "Ġlength": 3973,
      "Even": 3974,
      "eds": 3975,
      "elly": 3976,
      "ensus": 3977,
      "Ġrese": 3978,
      "ibly": 3979,
      "Ġ23": 3980,
      "reme": 3981,
      "ĠFred": 3982,
      "oyal": 3983,
      "cing": 3984,
      "Ġdiscuss": 3985,
      "yy": 3986,
      "Ġeff": 3987,
      "Ġscr": 3988,
      "Ġbang": 3989,
      "Does": 3990,
      "these": 3991,
      "Ġrelig": 3992,
      "13": 3993,
      "CK": 3994,
      "erved": 3995,
      "Ġdressed": 3996,
      "ped": 3997,
      "Ġkick": 3998,
      "ĠIT": 3999,
      "four": 4000,
      "Ġlines": 4001,
      "Ġsquare": 4002,
      "Ġfinal": 4003,
      "fit": 4004,
      "ergy": 4005,
      "Ġsevent": 4006,
      "ĠRepublic": 4007,
      "ĠAust": 4008,
      "pret": 4009,
      "Ġsex": 4010,
      "Ġ22": 4011,
      "Miss": 4012,
      "ctions": 4013,
      "Ġbound": 4014,
      "Ġarrived": 4015,
      "Ġ100": 4016,
      "Ġrespons": 4017,
      "ĠParis": 4018,
      "Ġbeyond": 4019,
      "aches": 4020,
      "Ġfighting": 4021,
      "thern": 4022,
      "Ġsharp": 4023,
      "enny": 4024,
      "Ġrole": 4025,
      "Ġdriving": 4026,
      "ĠMinister": 4027,
      "Ġvarious": 4028,
      "ĠColl": 4029,
      "Ġhate": 4030,
      "Ġwinter": 4031,
      "vo": 4032,
      "URS": 4033,
      "Ġstreng": 4034,
      "Ġlargest": 4035,
      "IR": 4036,
      "Br": 4037,
      "Ġlaid": 4038,
      "Ġhill": 4039,
      "Ġbran": 4040,
      "ĠSan": 4041,
      "Ġdirected": 4042,
      "Ġmissing": 4043,
      "Ġutter": 4044,
      "Ġpath": 4045,
      "Ġeast": 4046,
      "essie": 4047,
      "anta": 4048,
      "pa": 4049,
      "Ġdestroy": 4050,
      "]!": 4051,
      "Ġintrodu": 4052,
      "Ġleader": 4053,
      "Ġ2010": 4054,
      "laughing": 4055,
      "Ġmovies": 4056,
      "Ġhey": 4057,
      "Ġsteps": 4058,
      "ups": 4059,
      "sidered": 4060,
      "Ġagreed": 4061,
      "Ġhm": 4062,
      "Ġconsidered": 4063,
      "Ġbull": 4064,
      "mommy": 4065,
      "alt": 4066,
      "Ġdeter": 4067,
      "ĠRobert": 4068,
      "Ġbeside": 4069,
      "Ġchocolate": 4070,
      "nal": 4071,
      "Ġsuit": 4072,
      "Ġtech": 4073,
      "Ġangry": 4074,
      "zen": 4075,
      "ĠFather": 4076,
      "Ġaction": 4077,
      "Ġdifference": 4078,
      "hered": 4079,
      "Ġphys": 4080,
      "Ġproud": 4081,
      "ĠAustralia": 4082,
      "Ġtou": 4083,
      "Ġmir": 4084,
      "Ġplaced": 4085,
      "Ġpleasure": 4086,
      "Our": 4087,
      "Ġtight": 4088,
      "Ġcrack": 4089,
      "Ġhappening": 4090,
      "astern": 4091,
      "arrow": 4092,
      "Ġide": 4093,
      "aturday": 4094,
      "cture": 4095,
      "ially": 4096,
      "Ġapart": 4097,
      "Pe": 4098,
      "Ġthrew": 4099,
      "ĠMer": 4100,
      "elp": 4101,
      "ĠHall": 4102,
      "Ġdiscovered": 4103,
      "Ġsandw": 4104,
      "Ġspeaking": 4105,
      "UT": 4106,
      "icious": 4107,
      "ĠMat": 4108,
      "Ġrefer": 4109,
      "Ġsens": 4110,
      "Pl": 4111,
      "action": 4112,
      "Ġsimple": 4113,
      "Ġsett": 4114,
      "ĠFirst": 4115,
      "line": 4116,
      "Ġnumbers": 4117,
      "itude": 4118,
      "Thomas": 4119,
      "rer": 4120,
      "antic": 4121,
      "TUR": 4122,
      "Ġclock": 4123,
      "Ġcult": 4124,
      "cks": 4125,
      "five": 4126,
      "Ġgod": 4127,
      "Ġstraw": 4128,
      "Ġfool": 4129,
      "ival": 4130,
      "ĠâĨĴ": 4131,
      "ails": 4132,
      "ables": 4133,
      "Qu": 4134,
      "utenant": 4135,
      "Ġden": 4136,
      "Ġdrew": 4137,
      "ached": 4138,
      "Ġraised": 4139,
      "ĠState": 4140,
      "Ġwatched": 4141,
      "Ġsoldiers": 4142,
      "Ġcrowd": 4143,
      "Ġrough": 4144,
      "ĠSpanish": 4145,
      "face": 4146,
      "father": 4147,
      "Ġflying": 4148,
      "ĠII": 4149,
      "Ġmedic": 4150,
      "Ġfat": 4151,
      "ĠJo": 4152,
      "Ġtiny": 4153,
      "sm": 4154,
      "...?": 4155,
      "ĠCup": 4156,
      "Ġbill": 4157,
      "Ġblocks": 4158,
      "Mom": 4159,
      "Ġescape": 4160,
      "Ġweather": 4161,
      "inct": 4162,
      "ĠON": 4163,
      "ousin": 4164,
      "Ġhandle": 4165,
      "Ġow": 4166,
      "ĠCr": 4167,
      "ĠBer": 4168,
      "Ġspell": 4169,
      "ĠBlue": 4170,
      "Ġeasily": 4171,
      "ĠHigh": 4172,
      "ams": 4173,
      "Ġdemand": 4174,
      "Ġtax": 4175,
      "ciety": 4176,
      "ĠRos": 4177,
      "Ġoppos": 4178,
      "ĠAlex": 4179,
      "ĠSunday": 4180,
      "Ġmonkey": 4181,
      "Ġsna": 4182,
      "ĠBo": 4183,
      "Ġplane": 4184,
      "Ġthinks": 4185,
      "Ġhiding": 4186,
      "Ġhurry": 4187,
      "Ġdriver": 4188,
      "Ġonto": 4189,
      "oken": 4190,
      "ĠCor": 4191,
      "LY": 4192,
      "idden": 4193,
      "Ġrelations": 4194,
      "Ġclever": 4195,
      "Ġcolors": 4196,
      "ĠSchool": 4197,
      "Ġfalling": 4198,
      "Ġpulled": 4199,
      "Ġskin": 4200,
      "AND": 4201,
      "Ġ26": 4202,
      "Ġspirit": 4203,
      "Ġthick": 4204,
      "Ġmissed": 4205,
      "ste": 4206,
      "Ġtemper": 4207,
      "Ġ2011": 4208,
      "Ġregular": 4209,
      "Ġbegin": 4210,
      "heart": 4211,
      "Ġoffe": 4212,
      "Ġpuzzle": 4213,
      "hal": 4214,
      "Ġrabbit": 4215,
      "ples": 4216,
      "oved": 4217,
      "ography": 4218,
      "ago": 4219,
      "outher": 4220,
      "Ġhouses": 4221,
      "ashion": 4222,
      "Tr": 4223,
      "Ġsilly": 4224,
      "ural": 4225,
      "Ġwit": 4226,
      "Ġcrit": 4227,
      "essel": 4228,
      "Ġwearing": 4229,
      "Ġmarket": 4230,
      "Ġdangerous": 4231,
      "Ġeager": 4232,
      "asons": 4233,
      "Ġhadn": 4234,
      "Ġmanage": 4235,
      "Ġanywhere": 4236,
      "ences": 4237,
      "Mrs": 4238,
      "wr": 4239,
      "Mhm": 4240,
      "ĠAg": 4241,
      "azing": 4242,
      "urse": 4243,
      "Ġ21": 4244,
      "ira": 4245,
      "ĠGeneral": 4246,
      "Ġhonest": 4247,
      "oring": 4248,
      "Ġinf": 4249,
      "Ġformed": 4250,
      "Ġwound": 4251,
      "aren": 4252,
      "Ġflat": 4253,
      "stit": 4254,
      "Ġsurprised": 4255,
      "ĠYour": 4256,
      "Ġpun": 4257,
      "jo": 4258,
      "Ġcompletely": 4259,
      "Ġbud": 4260,
      "Ġtrave": 4261,
      "Ġemploy": 4262,
      "Ġmoves": 4263,
      "John": 4264,
      "Ġgate": 4265,
      "Ġur": 4266,
      "Ġund": 4267,
      "Ġscene": 4268,
      "aura": 4269,
      "Ġweap": 4270,
      "ĠMed": 4271,
      "ivid": 4272,
      "Ġcollege": 4273,
      "Ġeh": 4274,
      "Ġgrad": 4275,
      "Ġiron": 4276,
      "iled": 4277,
      "Ġprofessional": 4278,
      "Ġwoods": 4279,
      "Ġbackground": 4280,
      "those": 4281,
      "Her": 4282,
      "ĠChe": 4283,
      "Ġfault": 4284,
      "ighs": 4285,
      "Ġmanner": 4286,
      "Ġhun": 4287,
      "Ġcrew": 4288,
      "ĠMal": 4289,
      "Ġbuck": 4290,
      "Ġmater": 4291,
      "Ġfilled": 4292,
      "Ġstarting": 4293,
      "ĠHenry": 4294,
      "Ġ&": 4295,
      "ĠSue": 4296,
      "umber": 4297,
      "ĠChristian": 4298,
      "Ġhero": 4299,
      "Ġgoin": 4300,
      "Ã¼": 4301,
      "vocalizes": 4302,
      "hin": 4303,
      "cast": 4304,
      "ĠJane": 4305,
      "Ġunless": 4306,
      "Um": 4307,
      "Ġsuff": 4308,
      "OL": 4309,
      "Ġstran": 4310,
      "Ġnaught": 4311,
      "bour": 4312,
      "Ġduty": 4313,
      "Ġnature": 4314,
      "sey": 4315,
      "Ġ2016": 4316,
      "road": 4317,
      "Ġbite": 4318,
      "Ġarrest": 4319,
      "ĠMex": 4320,
      "outhern": 4321,
      "Fran": 4322,
      "Ġtaste": 4323,
      "onel": 4324,
      "ĠRichard": 4325,
      "Ġcrazy": 4326,
      "oves": 4327,
      "Ġimmediately": 4328,
      "amma": 4329,
      "Ġwed": 4330,
      "Ġcoast": 4331,
      "cean": 4332,
      "ĠBel": 4333,
      "Ġended": 4334,
      "Ġma": 4335,
      "Ġregard": 4336,
      "vious": 4337,
      "Ġthreat": 4338,
      "Ġ27": 4339,
      "ternational": 4340,
      "Ġradio": 4341,
      "Ġempty": 4342,
      "usic": 4343,
      "Say": 4344,
      "ship": 4345,
      "ĠTur": 4346,
      "aud": 4347,
      "Which": 4348,
      "boy": 4349,
      "icle": 4350,
      "Ġsho": 4351,
      "Ġinflu": 4352,
      "Ġdeg": 4353,
      "ensive": 4354,
      "Ġroof": 4355,
      "16": 4356,
      "Ġpuppet": 4357,
      "ĠLa": 4358,
      "Ġstream": 4359,
      "Ġsocial": 4360,
      "Ġbabies": 4361,
      "ĠChampions": 4362,
      "sil": 4363,
      "van": 4364,
      "Ġdate": 4365,
      "ĠRo": 4366,
      "Ġcivil": 4367,
      "Ġcabin": 4368,
      "Ġexpected": 4369,
      "Ġshirt": 4370,
      "ems": 4371,
      "ki": 4372,
      "Ġfaith": 4373,
      "Ġcomputer": 4374,
      "hah": 4375,
      "ĠMac": 4376,
      "IM": 4377,
      "Ġlid": 4378,
      "Ġannounced": 4379,
      "ĠBE": 4380,
      "Ġnecessary": 4381,
      "picks": 4382,
      "utch": 4383,
      "Ġvessel": 4384,
      "ois": 4385,
      "ria": 4386,
      "ĠFrom": 4387,
      "Ġmicro": 4388,
      "Ġsimply": 4389,
      "Ġcere": 4390,
      "Ġsurv": 4391,
      "Ġtherefore": 4392,
      "SIB": 4393,
      "Ġagree": 4394,
      "Ġbelieved": 4395,
      "Ġpan": 4396,
      "Ġnotice": 4397,
      "Ġquarter": 4398,
      "Ġactor": 4399,
      "ĠQueen": 4400,
      "ses": 4401,
      "Ġcuri": 4402,
      "Ġdru": 4403,
      "rig": 4404,
      "Ġoriginal": 4405,
      "vi": 4406,
      "Ġoffer": 4407,
      "50": 4408,
      "Ġopport": 4409,
      "Ġpleased": 4410,
      "Ġperm": 4411,
      "Ġwake": 4412,
      "Ġhuge": 4413,
      "ĠTex": 4414,
      "aine": 4415,
      "Ġaud": 4416,
      "iel": 4417,
      "Ġmeaning": 4418,
      "200": 4419,
      "Ġcustom": 4420,
      "Ġpossess": 4421,
      "Excuse": 4422,
      "Ġfallen": 4423,
      "Ġprivate": 4424,
      "roat": 4425,
      "ledge": 4426,
      ".,": 4427,
      "Ġbye": 4428,
      "Ġexcited": 4429,
      "Ġlog": 4430,
      "Ġfruit": 4431,
      "Ġpromised": 4432,
      "Was": 4433,
      "Ġpurpose": 4434,
      "ba": 4435,
      "Ġ28": 4436,
      "Ġhigher": 4437,
      "Ġexperience": 4438,
      "Ġsongs": 4439,
      "puts": 4440,
      "Ġtower": 4441,
      "Ġsoul": 4442,
      "ĠPet": 4443,
      "May": 4444,
      "Ġtravel": 4445,
      "Ġproject": 4446,
      "Ġpolitical": 4447,
      "ĠWhite": 4448,
      "omin": 4449,
      "stop": 4450,
      "Ġusual": 4451,
      "Ġmilitary": 4452,
      "hest": 4453,
      "Ġenergy": 4454,
      "Ġmodern": 4455,
      "Ġtwice": 4456,
      "Ġ29": 4457,
      "Ġsupper": 4458,
      "Ġplain": 4459,
      "ooth": 4460,
      "ĠCat": 4461,
      "ĠJwww": 4462,
      "Ġjoy": 4463,
      "Ġplenty": 4464,
      "ĠAir": 4465,
      "ĠHey": 4466,
      "Ġneedta": 4467,
      "Bob": 4468,
      "De": 4469,
      "ĠTV": 4470,
      "gl": 4471,
      "Ġcheer": 4472,
      "Ġeconom": 4473,
      "ĠEuropean": 4474,
      "Ġble": 4475,
      "Ġsettle": 4476,
      "Ġjourney": 4477,
      "bon": 4478,
      "yer": 4479,
      "gon": 4480,
      "ĠBert": 4481,
      "Ġlower": 4482,
      "Ġsinger": 4483,
      "berry": 4484,
      "Ġident": 4485,
      "Ġbrie": 4486,
      "Ġ..": 4487,
      "brother": 4488,
      "Ġsmart": 4489,
      "abel": 4490,
      "ossible": 4491,
      "takes": 4492,
      "ĠAmy": 4493,
      "ux": 4494,
      "cip": 4495,
      "Ġedge": 4496,
      "lor": 4497,
      "itor": 4498,
      "Ġsusp": 4499,
      "Ġdust": 4500,
      "Ġtap": 4501,
      "ĠSaturday": 4502,
      "eer": 4503,
      "Ġthus": 4504,
      "Ġtone": 4505,
      "Ġfeat": 4506,
      "Ġlights": 4507,
      "Ġlion": 4508,
      "Ġshoe": 4509,
      "Ġnet": 4510,
      "ĠLouis": 4511,
      "keep": 4512,
      "ords": 4513,
      "Ġdinosaur": 4514,
      "ushes": 4515,
      "ĠLittle": 4516,
      "asc": 4517,
      "Ġ2014": 4518,
      "ĠHam": 4519,
      "counter": 4520,
      "Ġgrown": 4521,
      "ĠMum": 4522,
      "Ġfro": 4523,
      "Ġgra": 4524,
      "Ġham": 4525,
      "Ġproduced": 4526,
      "Never": 4527,
      "Ġmunicipality": 4528,
      "mar": 4529,
      "ggie": 4530,
      "Ġlucky": 4531,
      "Pro": 4532,
      "Ġ)": 4533,
      "----------------": 4534,
      "ishes": 4535,
      "ruction": 4536,
      "Ġawful": 4537,
      "oups": 4538,
      "ĠST": 4539,
      "ĠAc": 4540,
      "Ġpound": 4541,
      "Ġstrength": 4542,
      "iber": 4543,
      "Ġbrave": 4544,
      "Ġnote": 4545,
      "book": 4546,
      "ners": 4547,
      "Ġflower": 4548,
      "Ġunc": 4549,
      "Ġgentleman": 4550,
      "erm": 4551,
      "Ġsaved": 4552,
      "oday": 4553,
      "ĠIts": 4554,
      "bered": 4555,
      "Ġlake": 4556,
      "Ġruns": 4557,
      "oly": 4558,
      "Ã¶": 4559,
      "Ġdepend": 4560,
      "Ġ2012": 4561,
      "ĠCouncil": 4562,
      "osing": 4563,
      "Ġindust": 4564,
      "Ġce": 4565,
      "bie": 4566,
      "Ġimpro": 4567,
      "Ġbeach": 4568,
      "Ġsugar": 4569,
      "bu": 4570,
      "ĠEr": 4571,
      "usion": 4572,
      "Ġopening": 4573,
      "Ġcart": 4574,
      "Ġmostly": 4575,
      "Ġexist": 4576,
      "Ġadvent": 4577,
      "Ġmotor": 4578,
      "Ste": 4579,
      "Ġnoticed": 4580,
      "istan": 4581,
      "urt": 4582,
      "cries": 4583,
      "chie": 4584,
      "FRI": 4585,
      "WE": 4586,
      "Ġhotel": 4587,
      "ibility": 4588,
      "ators": 4589,
      "Ġterms": 4590,
      "Ġofficers": 4591,
      "Ġ2013": 4592,
      "Ġinj": 4593,
      "istr": 4594,
      "ĠCarol": 4595,
      "CE": 4596,
      "GHT": 4597,
      "aret": 4598,
      "ĠEarth": 4599,
      "Ġordered": 4600,
      "Am": 4601,
      "Ġchoice": 4602,
      "burg": 4603,
      "Ġinterrupt": 4604,
      "God": 4605,
      "History": 4606,
      "Only": 4607,
      "ĠPort": 4608,
      "Ġevidence": 4609,
      "Ġmessage": 4610,
      "Ġtrick": 4611,
      "Ġearlier": 4612,
      "eech": 4613,
      "ĠAnn": 4614,
      "Ġcro": 4615,
      "looking": 4616,
      "Ġlistening": 4617,
      "ĠDu": 4618,
      "Ġmistake": 4619,
      "Ġant": 4620,
      "osh": 4621,
      "ointed": 4622,
      "Ġassist": 4623,
      "Ġimagine": 4624,
      "Ġseconds": 4625,
      "Ġcarefully": 4626,
      "ĠJean": 4627,
      "Ġimm": 4628,
      "ening": 4629,
      "Ġtears": 4630,
      "Ġstruck": 4631,
      "Ġdisp": 4632,
      "Ġdeck": 4633,
      "uckles": 4634,
      "agon": 4635,
      "Ġgrab": 4636,
      "Ġgoodness": 4637,
      "ĠScott": 4638,
      "ĠBunny": 4639,
      "initely": 4640,
      "ops": 4641,
      "Ġteddy": 4642,
      "Ġnurs": 4643,
      "Ġ2015": 4644,
      "mie": 4645,
      "SOA": 4646,
      "Ġsac": 4647,
      "Ġattract": 4648,
      "Ġelection": 4649,
      "Ġstorm": 4650,
      "ĠUnion": 4651,
      "Ġcensus": 4652,
      "Ġdouble": 4653,
      "ĠEn": 4654,
      "Ġsnake": 4655,
      "Ġpause": 4656,
      "Ġmagic": 4657,
      "Ġweight": 4658,
      "ĠLee": 4659,
      "Ġorders": 4660,
      "ucky": 4661,
      "Ġguns": 4662,
      "Ġtotal": 4663,
      "ĠStan": 4664,
      "ĠOld": 4665,
      "ĠStreet": 4666,
      "Ġstret": 4667,
      "Ġoccup": 4668,
      "ĠTexas": 4669,
      "Ġheads": 4670,
      "ĠTony": 4671,
      "Ġhi": 4672,
      "ett": 4673,
      "Ġmarry": 4674,
      "Ġyouth": 4675,
      "Ġstrugg": 4676,
      "Perhaps": 4677,
      "Ġsmoke": 4678,
      "ĠAnne": 4679,
      "Ġbless": 4680,
      "Ġnaughty": 4681,
      "ashington": 4682,
      "Ġpleasant": 4683,
      "kins": 4684,
      "Ġscream": 4685,
      "Ġgrowing": 4686,
      "Ġswimming": 4687,
      "Ġbeha": 4688,
      "ala": 4689,
      "Ġcondu": 4690,
      "Ġtrail": 4691,
      "Ġ2008": 4692,
      "Ġpair": 4693,
      "ĠCharles": 4694,
      "vere": 4695,
      "another": 4696,
      "eman": 4697,
      "Ġnea": 4698,
      "fall": 4699,
      "ST": 4700,
      "ĠNin": 4701,
      "Ġladies": 4702,
      "eless": 4703,
      "Ġinvolved": 4704,
      "ĠDoctor": 4705,
      "inese": 4706,
      "CAT": 4707,
      "eg": 4708,
      "whoops": 4709,
      "ĠRussian": 4710,
      "Ġflag": 4711,
      "every": 4712,
      "Ġrow": 4713,
      "Ġestab": 4714,
      "oons": 4715,
      "Ġnewsp": 4716,
      "elebr": 4717,
      "Dad": 4718,
      "Ġfellows": 4719,
      "Ġappl": 4720,
      "should": 4721,
      "ĠKingdom": 4722,
      "Ġwand": 4723,
      "Ġkeeping": 4724,
      "Ġtaught": 4725,
      "Ġepis": 4726,
      "Ġpin": 4727,
      "ĠSim": 4728,
      "hall": 4729,
      "ĠSarah": 4730,
      "oses": 4731,
      "Ġoccur": 4732,
      "ĠItalian": 4733,
      "Ġnon": 4734,
      "Ġrule": 4735,
      "Ġbrush": 4736,
      "Ġknife": 4737,
      "make": 4738,
      "Ġpersonal": 4739,
      "Ġearn": 4740,
      "using": 4741,
      "Ġchoose": 4742,
      "eaks": 4743,
      "RYA": 4744,
      "Ġshoulder": 4745,
      "wing": 4746,
      "aving": 4747,
      "ĠSummer": 4748,
      "Ġmeal": 4749,
      "ols": 4750,
      "ĠSen": 4751,
      "Ġchem": 4752,
      "Ġswing": 4753,
      "KE": 4754,
      "ĠSch": 4755,
      "Ġstairs": 4756,
      "Ġmouse": 4757,
      "Ġstock": 4758,
      "Ġwalks": 4759,
      "Ġcards": 4760,
      "ĠMany": 4761,
      "ograph": 4762,
      "Ġ50": 4763,
      "Ġshoot": 4764,
      "istics": 4765,
      "First": 4766,
      "oted": 4767,
      "Ġnest": 4768,
      "Ġgroups": 4769,
      "Ġcalls": 4770,
      "ĠKe": 4771,
      "iction": 4772,
      "Ġbutton": 4773,
      "Ġremem": 4774,
      "Ġdirty": 4775,
      "Ġtells": 4776,
      "Could": 4777,
      "ĠItaly": 4778,
      "ively": 4779,
      "Ġchap": 4780,
      "Ġpit": 4781,
      "Ġcontinues": 4782,
      "Ġflight": 4783,
      "ĠPri": 4784,
      "Ġ2009": 4785,
      "Ġtong": 4786,
      "Ġworried": 4787,
      "ontin": 4788,
      "mond": 4789,
      "arry": 4790,
      "Ġweak": 4791,
      "Ġ2007": 4792,
      "Ġareas": 4793,
      "Ġshad": 4794,
      "izza": 4795,
      "Ġpublished": 4796,
      "ĠMama": 4797,
      "JEN": 4798,
      "icated": 4799,
      "ĠCanada": 4800,
      "ify": 4801,
      "Ġaddress": 4802,
      "Ġscient": 4803,
      "ero": 4804,
      "ĠOK": 4805,
      "Ġhello": 4806,
      "Ġlips": 4807,
      "Ġcenter": 4808,
      "Ã¨": 4809,
      "anny": 4810,
      "Ġacqu": 4811,
      "Ġmurder": 4812,
      "going": 4813,
      "Ġbother": 4814,
      "aked": 4815,
      "ola": 4816,
      "isn": 4817,
      "urity": 4818,
      "ĠBig": 4819,
      "mine": 4820,
      "Ġremind": 4821,
      "blue": 4822,
      "could": 4823,
      "Ġsides": 4824,
      "nic": 4825,
      "ĠME": 4826,
      "urdie": 4827,
      "ĠChina": 4828,
      "Ġbegins": 4829,
      "Ġgrave": 4830,
      "ĠPal": 4831,
      "oured": 4832,
      "Ġbedroom": 4833,
      "ugg": 4834,
      "Ġdownstairs": 4835,
      "Ġpeas": 4836,
      "ĠDid": 4837,
      "ule": 4838,
      "ĠGold": 4839,
      "Ġspoken": 4840,
      "Ġbowl": 4841,
      "rising": 4842,
      "gypt": 4843,
      "berg": 4844,
      "Ġfirm": 4845,
      "iring": 4846,
      "ĠScot": 4847,
      "Ġplants": 4848,
      "sed": 4849,
      "vey": 4850,
      "dad": 4851,
      "Ġslide": 4852,
      "ĠWashington": 4853,
      "Ġharm": 4854,
      "Ġtries": 4855,
      "Ġfounded": 4856,
      "Ġfixed": 4857,
      "ĠDem": 4858,
      "Ġcalm": 4859,
      "GE": 4860,
      "Ġenter": 4861,
      "Ġforgotten": 4862,
      "Ġprepared": 4863,
      "Ġtitle": 4864,
      "Ġdancing": 4865,
      "ulf": 4866,
      "log": 4867,
      "Ġrising": 4868,
      "ĠChurch": 4869,
      "Se": 4870,
      "Ġgall": 4871,
      "ourt": 4872,
      "Ġshown": 4873,
      "Ġprice": 4874,
      "Ġ2006": 4875,
      "razil": 4876,
      "Ġtelephone": 4877,
      "Ġindepend": 4878,
      "Ġdesp": 4879,
      "cend": 4880,
      "Ġcommunity": 4881,
      "Ġcloser": 4882,
      "Ġrapid": 4883,
      "ĠOkay": 4884,
      "Ġdise": 4885,
      "Ġimpossible": 4886,
      "VER": 4887,
      "Ġye": 4888,
      "Ġdirector": 4889,
      "ALL": 4890,
      "VAL": 4891,
      "Got": 4892,
      "âĮī.": 4893,
      "rib": 4894,
      "Ġclaim": 4895,
      "eff": 4896,
      "Ġreaches": 4897,
      "ittee": 4898,
      "Gu": 4899,
      "Ġneither": 4900,
      "Ġinqu": 4901,
      "host": 4902,
      "open": 4903,
      "Ġteach": 4904,
      "Ġappre": 4905,
      "Ġet": 4906,
      "Ġpil": 4907,
      "Ġbee": 4908,
      "Ġaged": 4909,
      "ĠAnge": 4910,
      "ĠBu": 4911,
      "ĠMaggie": 4912,
      "ordon": 4913,
      "Ġsmaller": 4914,
      "ĠEvery": 4915,
      "ĠTim": 4916,
      "rid": 4917,
      "Ġhonor": 4918,
      "Sir": 4919,
      "Ġchanges": 4920,
      "cis": 4921,
      "Ġrocks": 4922,
      "cts": 4923,
      "Ġmanaged": 4924,
      "ĠIre": 4925,
      "Ġevident": 4926,
      "ĠChild": 4927,
      "Ġsour": 4928,
      "ari": 4929,
      "âĮĭ.": 4930,
      "Ġsurround": 4931,
      "edy": 4932,
      "ĠBur": 4933,
      "bur": 4934,
      "Ġheat": 4935,
      "Ġversion": 4936,
      "Chi": 4937,
      "ĠWal": 4938,
      "Ã³": 4939,
      "urry": 4940,
      "ni": 4941,
      "Ġheaven": 4942,
      "rot": 4943,
      "Ġtv": 4944,
      "Ġmarriage": 4945,
      "ooting": 4946,
      "Ġ()": 4947,
      "Ġmult": 4948,
      "water": 4949,
      "ĠMartin": 4950,
      "Ġmum": 4951,
      "ĠMel": 4952,
      "Ġloss": 4953,
      "igs": 4954,
      "show": 4955,
      "oughs": 4956,
      "Ġjumped": 4957,
      "Ġloves": 4958,
      "Ġplans": 4959,
      "Ġcousin": 4960,
      "Ġenv": 4961,
      "ching": 4962,
      "ĠArab": 4963,
      "mo": 4964,
      "ĠAfrica": 4965,
      "Fr": 4966,
      "Ġlocated": 4967,
      "Ġcelebr": 4968,
      "ĠJud": 4969,
      "Ġmovement": 4970,
      "Ġboss": 4971,
      "ĠIsland": 4972,
      "Ġpurple": 4973,
      "Ġbrain": 4974,
      "known": 4975,
      "Ġvac": 4976,
      "Ġrate": 4977,
      "Ġflo": 4978,
      "Ġcorrect": 4979,
      "ĠâĮĪ": 4980,
      "Ġoccasion": 4981,
      "bre": 4982,
      "rees": 4983,
      "Ġlap": 4984,
      "Ġtraining": 4985,
      "Ġemer": 4986,
      "inger": 4987,
      "Ġgentlemen": 4988,
      "think": 4989,
      "ena": 4990,
      "Ġtiger": 4991,
      "Ġinvestig": 4992,
      "ĠSpain": 4993,
      "ata": 4994,
      "Ġamb": 4995,
      "atin": 4996,
      "Ġspeech": 4997,
      "Ġremained": 4998,
      "ĠFlor": 4999,
      "Ġclimb": 5000,
      "Ġcontract": 5001,
      "babbles": 5002,
      "Ġnormal": 5003,
      "Ġ[?": 5004,
      "Dr": 5005,
      "sure": 5006,
      "Ġeducation": 5007,
      "asy": 5008,
      "ban": 5009,
      "ĠGO": 5010,
      "Ġeld": 5011,
      "Ġabsolutely": 5012,
      "ker": 5013,
      "Ġpool": 5014,
      "Ġopportunity": 5015,
      "ĠJose": 5016,
      "Ġninet": 5017,
      "Ġsuggested": 5018,
      "ĠEgypt": 5019,
      "rison": 5020,
      "ĠCom": 5021,
      "ĠTheir": 5022,
      "lected": 5023,
      "ĠMic": 5024,
      "isa": 5025,
      "--\"": 5026,
      "Ġbatter": 5027,
      "Ġoil": 5028,
      "oph": 5029,
      "Ġcarrying": 5030,
      "Ġfifteen": 5031,
      "ij": 5032,
      "cut": 5033,
      "ĠBrazil": 5034,
      "cr": 5035,
      "Ad": 5036,
      "Ġgro": 5037,
      "itation": 5038,
      "Ġcases": 5039,
      "Ġtun": 5040,
      "ĠTHAT": 5041,
      "arently": 5042,
      "liament": 5043,
      "ĠPeople": 5044,
      "Ġfinding": 5045,
      "ez": 5046,
      "oid": 5047,
      "Ġwheels": 5048,
      "cream": 5049,
      "Ġdeb": 5050,
      "Ġtrade": 5051,
      "ĠCharlie": 5052,
      "Ġcred": 5053,
      "ella": 5054,
      "Ġkinds": 5055,
      "SE": 5056,
      "Ġancient": 5057,
      "Ġintern": 5058,
      "Ġstayed": 5059,
      "gen": 5060,
      "Ġfashion": 5061,
      "Ġelectric": 5062,
      "pen": 5063,
      "Ġmedicine": 5064,
      "Ġsch": 5065,
      "Ġshowing": 5066,
      "ĠWin": 5067,
      "Ġeverywhere": 5068,
      "Ġcondition": 5069,
      "Ġbat": 5070,
      "Ġsurface": 5071,
      "aries": 5072,
      "sl": 5073,
      "Ġbal": 5074,
      "Ġpapers": 5075,
      "Ġindivid": 5076,
      "Ġcookie": 5077,
      "Ġrules": 5078,
      "Ġactress": 5079,
      "Ġfaces": 5080,
      "âĮĬ": 5081,
      "Ġgenerally": 5082,
      "Ġcrime": 5083,
      "ĠDist": 5084,
      "ĠWil": 5085,
      "Ġavail": 5086,
      "Ġrout": 5087,
      "ĠChinese": 5088,
      "ĠFriday": 5089,
      "Ġpill": 5090,
      "Ġdrinking": 5091,
      "ette": 5092,
      "Ġfourth": 5093,
      "Ġpractice": 5094,
      "west": 5095,
      "Ġfemale": 5096,
      "ĠâĢĻ": 5097,
      "ĠIr": 5098,
      "ĠAward": 5099,
      "Ġupset": 5100,
      "Ġquietly": 5101,
      "Ġopin": 5102,
      "aled": 5103,
      "ĠDep": 5104,
      "Ġourselves": 5105,
      "Ġfalls": 5106,
      "Ġmagaz": 5107,
      "Ġbrothers": 5108,
      "Ġexec": 5109,
      "Ġproceed": 5110,
      "ĠÃ": 5111,
      "Ġevents": 5112,
      "su": 5113,
      "Ġir": 5114,
      "Ġtoast": 5115,
      "ĠNed": 5116,
      "Ġprint": 5117,
      "Ġoffered": 5118,
      "Ġtent": 5119,
      "Ġprim": 5120,
      "__": 5121,
      "pet": 5122,
      "Ġassoci": 5123,
      "Ġbits": 5124,
      "onday": 5125,
      "Ġdoors": 5126,
      "aft": 5127,
      "Ġprovince": 5128,
      "osta": 5129,
      "Ġmut": 5130,
      "iety": 5131,
      "Ġleading": 5132,
      "Ġsandwich": 5133,
      "olic": 5134,
      "uhuh": 5135,
      "ĠÂ": 5136,
      "ĠDay": 5137,
      "Ġstands": 5138,
      "Ġpercent": 5139,
      "Ġprevent": 5140,
      "ĠOlympics": 5141,
      "Ġships": 5142,
      "Ġrange": 5143,
      "Ġmotion": 5144,
      "aws": 5145,
      "Ġmountains": 5146,
      "Jack": 5147,
      "onse": 5148,
      "Ġblind": 5149,
      "Ġsake": 5150,
      "ĠReg": 5151,
      "Ġdread": 5152,
      "ĠMount": 5153,
      "Ġwalls": 5154,
      "UK": 5155,
      "GR": 5156,
      "IF": 5157,
      "worth": 5158,
      "ĠGar": 5159,
      "Ġdecision": 5160,
      "Ġliter": 5161,
      "Ġrope": 5162,
      "New": 5163,
      "ademy": 5164,
      "ĠBear": 5165,
      "Ġsaf": 5166,
      "ĠDO": 5167,
      "ĠGrandma": 5168,
      "note": 5169,
      "Ġthroat": 5170,
      "Ġaccording": 5171,
      "Ġexcuse": 5172,
      "Ġ190": 5173,
      "Ġopposite": 5174,
      "ĠNat": 5175,
      "ĠTwo": 5176,
      "ĠPrince": 5177,
      "Ġsuspect": 5178,
      "Ġpor": 5179,
      "actor": 5180,
      "ĠDis": 5181,
      "ĠJew": 5182,
      "Ġnovel": 5183,
      "cellent": 5184,
      "mot": 5185,
      "llen": 5186,
      "Ġcontinue": 5187,
      "volution": 5188,
      "Ġwine": 5189,
      "Ġkitty": 5190,
      "Ġge": 5191,
      "Ġshake": 5192,
      "ĠChan": 5193,
      "ĠBonnet": 5194,
      "Ġnurse": 5195,
      "ounce": 5196,
      "ĠSwed": 5197,
      "OTH": 5198,
      "ĠMil": 5199,
      "Ġartist": 5200,
      "ĠRock": 5201,
      "bes": 5202,
      "ipper": 5203,
      "ĠFOR": 5204,
      "bet": 5205,
      "ĠJesus": 5206,
      "gress": 5207,
      "ĠKore": 5208,
      "Ġwond": 5209,
      "Ġmail": 5210,
      "Ġhelping": 5211,
      "Ġsits": 5212,
      "ENT": 5213,
      "irgin": 5214,
      "ĠWH": 5215,
      "Ġvictim": 5216,
      "Ġwedding": 5217,
      "ĠLady": 5218,
      "Ġboats": 5219,
      "itional": 5220,
      "Ġneighbor": 5221,
      "ĠMont": 5222,
      "....": 5223,
      "bey": 5224,
      "Foot": 5225,
      "ĠSmith": 5226,
      "ocrat": 5227,
      "Ġstudio": 5228,
      "erc": 5229,
      "Ġshouted": 5230,
      "Ġaunt": 5231,
      "stood": 5232,
      "Ġresc": 5233,
      "Ġeasier": 5234,
      "ĠMost": 5235,
      "rance": 5236,
      "Keep": 5237,
      "hum": 5238,
      "ĠMaster": 5239,
      "Ġcontact": 5240,
      "Ġbeauty": 5241,
      "Ġfrightened": 5242,
      "dr": 5243,
      "oms": 5244,
      "Ġalt": 5245,
      "Ġcouncil": 5246,
      "Ġattend": 5247,
      "nine": 5248,
      "Ġappearance": 5249,
      "Ġpolic": 5250,
      "Ġninety": 5251,
      "Ġcentre": 5252,
      "useum": 5253,
      "iana": 5254,
      "plane": 5255,
      "Ġtongue": 5256,
      "uce": 5257,
      "Ġbike": 5258,
      "Ġshell": 5259,
      "ellig": 5260,
      "Ġgreatest": 5261,
      "Che": 5262,
      "Ġox": 5263,
      "Ġuses": 5264,
      "Ġideas": 5265,
      "Put": 5266,
      "Ġsmiled": 5267,
      "Ġpir": 5268,
      "Ġrights": 5269,
      "ĠKen": 5270,
      "ache": 5271,
      "Ġaffect": 5272,
      "ĠGreen": 5273,
      "Ġcraw": 5274,
      "esty": 5275,
      "Mother": 5276,
      "Ġobviously": 5277,
      "Tom": 5278,
      "Ooh": 5279,
      "Ġaver": 5280,
      "Ġyounger": 5281,
      "ĠAnna": 5282,
      "Ġsuccessful": 5283,
      "Ġdetect": 5284,
      "filler": 5285,
      "omen": 5286,
      "izing": 5287,
      "Ġextreme": 5288,
      "Cos": 5289,
      "Ġstyle": 5290,
      "sorry": 5291,
      "lyn": 5292,
      "tering": 5293,
      "Ġdesk": 5294,
      "whe": 5295,
      "little": 5296,
      "Ġcomfortable": 5297,
      "Ġretired": 5298,
      "Ġboo": 5299,
      "Ġwilling": 5300,
      "Ġofficial": 5301,
      "Ġhistor": 5302,
      "ini": 5303,
      "arily": 5304,
      "Ġreck": 5305,
      "ĠMax": 5306,
      "YOU": 5307,
      "Isn": 5308,
      "Ġ2000": 5309,
      "abeth": 5310,
      "Ġstudents": 5311,
      "People": 5312,
      "Ġanxious": 5313,
      "Ġsuc": 5314,
      "Ġfavour": 5315,
      "fish": 5316,
      "Ġwindows": 5317,
      "Ġmodel": 5318,
      "ials": 5319,
      "ompany": 5320,
      "Ġchat": 5321,
      "nods": 5322,
      "actually": 5323,
      "Ġsettled": 5324,
      "Ġpour": 5325,
      "ĠGra": 5326,
      "Ġperfectly": 5327,
      "Ġmentioned": 5328,
      "vest": 5329,
      "Ġwaited": 5330,
      "Ġkeeps": 5331,
      "Ġvocal": 5332,
      "Ġnarrow": 5333,
      "aning": 5334,
      "Ġjudge": 5335,
      "Hold": 5336,
      "Ġcities": 5337,
      "Ġcy": 5338,
      "Ġbringing": 5339,
      "Ġshook": 5340,
      "Ġdecide": 5341,
      "Ġyell": 5342,
      "rick": 5343,
      "Ġdoin": 5344,
      "Ind": 5345,
      "adder": 5346,
      "ogether": 5347,
      "Char": 5348,
      "Ġpossibly": 5349,
      "Ġtar": 5350,
      "mn": 5351,
      "eat": 5352,
      "semb": 5353,
      "ongress": 5354,
      "Ġsucceed": 5355,
      "Ġsixty": 5356,
      "Ġreply": 5357,
      "Le": 5358,
      "happy": 5359,
      "wenty": 5360,
      "Ġwhispered": 5361,
      "aly": 5362,
      "Ġmicrophone": 5363,
      "green": 5364,
      "bow": 5365,
      "Ġaward": 5366,
      "rell": 5367,
      "silence": 5368,
      "ĠMo": 5369,
      "Con": 5370,
      "Ġdefend": 5371,
      "Ġforced": 5372,
      "iano": 5373,
      "ccording": 5374,
      "ota": 5375,
      "fection": 5376,
      "Cal": 5377,
      "STE": 5378,
      "Ġeaten": 5379,
      "Ġtim": 5380,
      "Ġdoc": 5381,
      "Ġtie": 5382,
      "Ġredu": 5383,
      "Ġcircum": 5384,
      "âĢĿ.": 5385,
      "idding": 5386,
      "Ġfurn": 5387,
      "ĠDel": 5388,
      "Ġknee": 5389,
      "Ġexplained": 5390,
      "Ġtowel": 5391,
      "Ġprove": 5392,
      "ĠDutch": 5393,
      "Ġsociety": 5394,
      "ĠSanta": 5395,
      "ga": 5396,
      "Bye": 5397,
      "alled": 5398,
      "Ġeleven": 5399,
      "Ġdirectly": 5400,
      "CT": 5401,
      "Ġwise": 5402,
      "atory": 5403,
      "Ġpoet": 5404,
      "ĠBessie": 5405,
      "fortun": 5406,
      "ĠIS": 5407,
      "Ġstir": 5408,
      "ĠRog": 5409,
      "Ġincluded": 5410,
      "Ġsteal": 5411,
      "ĠRoss": 5412,
      "Ġ2005": 5413,
      "rilliant": 5414,
      "Ġrisk": 5415,
      "Ġsomewhat": 5416,
      "Ġmemory": 5417,
      "Ġrealize": 5418,
      "ĠSl": 5419,
      "ĠFin": 5420,
      "Ġflew": 5421,
      "orough": 5422,
      "Ġwhist": 5423,
      "Ġstring": 5424,
      "Great": 5425,
      "Ġbark": 5426,
      "Ġknowledge": 5427,
      "Ġbin": 5428,
      "nce": 5429,
      "ĠSal": 5430,
      "Ġholiday": 5431,
      "Ġsilent": 5432,
      "icked": 5433,
      "ĠAct": 5434,
      "ĠChic": 5435,
      "Ġzoo": 5436,
      "ii": 5437,
      "inda": 5438,
      "Ġ40": 5439,
      "ethod": 5440,
      "Ġstudied": 5441,
      "ĠBeck": 5442,
      "Ġdare": 5443,
      "Ġballoon": 5444,
      "Three": 5445,
      "ĠSea": 5446,
      "ĠInternational": 5447,
      "Mama": 5448,
      "Ġbiggest": 5449,
      "Ġdeveloped": 5450,
      "Ġnursery": 5451,
      "Ġglasses": 5452,
      "Ġbathroom": 5453,
      "ĠFrancis": 5454,
      "Ġmission": 5455,
      "Ġshel": 5456,
      "Ġschools": 5457,
      "Ġfairly": 5458,
      "Ġbump": 5459,
      "ental": 5460,
      "Ġsoftly": 5461,
      "ented": 5462,
      "Ġafterwards": 5463,
      "Ġhighest": 5464,
      "Ġshopping": 5465,
      "Ġbare": 5466,
      "Ġsees": 5467,
      "Ġlawyer": 5468,
      "iling": 5469,
      "Ġ2004": 5470,
      "isy": 5471,
      "place": 5472,
      "lig": 5473,
      "LI": 5474,
      "Ġbunny": 5475,
      "mark": 5476,
      "only": 5477,
      "odes": 5478,
      "Everything": 5479,
      "six": 5480,
      "Ġmanager": 5481,
      "Ġnap": 5482,
      "ification": 5483,
      "ĠCO": 5484,
      "Ġmere": 5485,
      "ĠWind": 5486,
      "gent": 5487,
      "othy": 5488,
      "Ġwriter": 5489,
      "rows": 5490,
      "Ġperforman": 5491,
      "isions": 5492,
      "Ġparticularly": 5493,
      "cely": 5494,
      "ĠEmp": 5495,
      "Ġnineteen": 5496,
      "Rem": 5497,
      "Ġpages": 5498,
      "Ġappreci": 5499,
      "ube": 5500,
      "Ġscience": 5501,
      "chester": 5502,
      "ictor": 5503,
      "pro": 5504,
      "Ġriding": 5505,
      "ores": 5506,
      "Ġescap": 5507,
      "ican": 5508,
      "Ġrust": 5509,
      "Ġevil": 5510,
      "Ġrepeated": 5511,
      "Ġbi": 5512,
      "EA": 5513,
      "eping": 5514,
      "Ġpainting": 5515,
      "yup": 5516,
      "Ġproperly": 5517,
      "Ġ2001": 5518,
      "ĠSus": 5519,
      "Ġpowerful": 5520,
      "really": 5521,
      "Ġtroub": 5522,
      "Ġsafety": 5523,
      "sequ": 5524,
      "About": 5525,
      "ĠThank": 5526,
      "Ġdun": 5527,
      "Ġlarger": 5528,
      "\"]": 5529,
      "Ġbub": 5530,
      "ĠSun": 5531,
      "Ġsigned": 5532,
      "Ġthoughts": 5533,
      "opher": 5534,
      "Ġclown": 5535,
      "Ġafford": 5536,
      "ĠRome": 5537,
      "Ġknowing": 5538,
      "Wow": 5539,
      "Ġfence": 5540,
      "try": 5541,
      "ministr": 5542,
      "kend": 5543,
      "Ġsav": 5544,
      "Ġmud": 5545,
      "icles": 5546,
      "Ġplayers": 5547,
      "Ġnomin": 5548,
      "Ġcit": 5549,
      "Ġune": 5550,
      "Footnote": 5551,
      "Ġmo": 5552,
      "Ġsoldier": 5553,
      "ĠArmy": 5554,
      "Ġrespond": 5555,
      "abb": 5556,
      "Ġbisc": 5557,
      "Ġshock": 5558,
      "WH": 5559,
      "daddy": 5560,
      "Ġhanging": 5561,
      "arly": 5562,
      "Ġarch": 5563,
      "Ġtext": 5564,
      "acks": 5565,
      "eed": 5566,
      "Ġserve": 5567,
      "vince": 5568,
      "Ġmate": 5569,
      "Ġrings": 5570,
      "Su": 5571,
      "Ġdefinitely": 5572,
      "Ġfund": 5573,
      "vert": 5574,
      "cat": 5575,
      "Ġtalks": 5576,
      "ingu": 5577,
      "ockey": 5578,
      "atoes": 5579,
      "Ġbomb": 5580,
      "Ġfeels": 5581,
      "ause": 5582,
      "Ġcastle": 5583,
      "imit": 5584,
      "JES": 5585,
      "Ġteams": 5586,
      "AMY": 5587,
      "ĠDick": 5588,
      "ĠJer": 5589,
      "ĠJones": 5590,
      "ĠBay": 5591,
      "bell": 5592,
      "Ġneg": 5593,
      "ulty": 5594,
      "Ġpassing": 5595,
      "while": 5596,
      "oned": 5597,
      "uments": 5598,
      "ĠEve": 5599,
      "Ġdepart": 5600,
      "pill": 5601,
      "yr": 5602,
      "Ġdevelopment": 5603,
      "Ġfeelings": 5604,
      "Ġeighty": 5605,
      "Huh": 5606,
      "Ġfought": 5607,
      "ctors": 5608,
      "draw": 5609,
      "Ġreve": 5610,
      "Ġconcerned": 5611,
      "Ġdisease": 5612,
      "Ġvote": 5613,
      "Ġblanket": 5614,
      "aa": 5615,
      "Ġpencil": 5616,
      "ĠLaw": 5617,
      "22": 5618,
      "pull": 5619,
      "Ġneat": 5620,
      "Ġservices": 5621,
      "Ġmatters": 5622,
      "Ġthrown": 5623,
      "Those": 5624,
      "amps": 5625,
      "Ġinvent": 5626,
      "Ġresearch": 5627,
      "Ġremarked": 5628,
      "Ġstates": 5629,
      "itar": 5630,
      "Ġwaste": 5631,
      "eta": 5632,
      "Ġcloth": 5633,
      "ilies": 5634,
      "Ġprefer": 5635,
      "ading": 5636,
      "ĠChief": 5637,
      "bel": 5638,
      "Ġhurried": 5639,
      "Ġmetal": 5640,
      "Alright": 5641,
      "Ġstro": 5642,
      "adian": 5643,
      "ĠLake": 5644,
      "rael": 5645,
      "ona": 5646,
      "Ġavailable": 5647,
      "Ġcoach": 5648,
      "sw": 5649,
      "Ġmonster": 5650,
      "ĠDuring": 5651,
      "Ġelected": 5652,
      "Ġfancy": 5653,
      "Ġ1990": 5654,
      "fin": 5655,
      "making": 5656,
      "izabeth": 5657,
      "Ġdisappeared": 5658,
      "ĠBro": 5659,
      "ĠRight": 5660,
      "Ġremembered": 5661,
      "ĠLuc": 5662,
      "Ġhearing": 5663,
      "Ġresponse": 5664,
      "Ġwondering": 5665,
      "Ġmale": 5666,
      "Ġdistribut": 5667,
      "mom": 5668,
      "win": 5669,
      "Ġcute": 5670,
      "ĠPlay": 5671,
      "Ġnative": 5672,
      "Before": 5673,
      "Ġeffort": 5674,
      "apt": 5675,
      "Ġchest": 5676,
      "Ġsalt": 5677,
      "ĠLaura": 5678,
      "ĠAlice": 5679,
      "Ġwashing": 5680,
      "ĠBoy": 5681,
      "umps": 5682,
      "yellow": 5683,
      "Ġwings": 5684,
      "Something": 5685,
      "Ġbarn": 5686,
      "Ġburst": 5687,
      "from": 5688,
      "gn": 5689,
      "itan": 5690,
      "Ġwave": 5691,
      "Ġpushed": 5692,
      "uf": 5693,
      "Ġpump": 5694,
      "Ġnerv": 5695,
      "holds": 5696,
      "bly": 5697,
      "ĠLook": 5698,
      "iliar": 5699,
      "after": 5700,
      "lend": 5701,
      "aign": 5702,
      "Ġinno": 5703,
      "pering": 5704,
      "ansas": 5705,
      "ĠIndians": 5706,
      "Ġvalue": 5707,
      "igr": 5708,
      "oking": 5709,
      "Ġtid": 5710,
      "Ġrelated": 5711,
      "ĠDes": 5712,
      "Ġopinion": 5713,
      "ION": 5714,
      "Ġmel": 5715,
      "ĠKat": 5716,
      "chief": 5717,
      "Ġwished": 5718,
      "Ġarrange": 5719,
      "Ġsmiling": 5720,
      "ension": 5721,
      "ĠAdam": 5722,
      "Ġfired": 5723,
      "mined": 5724,
      "war": 5725,
      "Ġder": 5726,
      "Ġinternational": 5727,
      "rible": 5728,
      "thur": 5729,
      "ĠRay": 5730,
      "Ġdebut": 5731,
      "Ġforever": 5732,
      "mit": 5733,
      "Ġpred": 5734,
      "Ġwitness": 5735,
      "imate": 5736,
      "Ġrare": 5737,
      "Lea": 5738,
      "ĠRussia": 5739,
      "Ġlatter": 5740,
      "aus": 5741,
      "aming": 5742,
      "uits": 5743,
      "Ġhell": 5744,
      "Ġhook": 5745,
      "Ġpressure": 5746,
      "scri": 5747,
      "Ġgreater": 5748,
      "Ġbod": 5749,
      "Ġfailed": 5750,
      "inc": 5751,
      "ironment": 5752,
      "ĠFort": 5753,
      "25": 5754,
      "isher": 5755,
      "year": 5756,
      "Ġdism": 5757,
      "Ġknocked": 5758,
      "Ġpizza": 5759,
      "Ġpra": 5760,
      "quar": 5761,
      "Ġ189": 5762,
      "Since": 5763,
      "ĠRose": 5764,
      "achel": 5765,
      "Ġopens": 5766,
      "whispers": 5767,
      "ĠRoyal": 5768,
      "Ġsen": 5769,
      "Ġsink": 5770,
      "ĠFlorida": 5771,
      "ĠAh": 5772,
      "Ġkinda": 5773,
      "ishment": 5774,
      "Ġwha": 5775,
      "Ġclearly": 5776,
      "icate": 5777,
      "ĠPo": 5778,
      "_.": 5779,
      "iggles": 5780,
      "Ġlanguages": 5781,
      "Ġthin": 5782,
      "Ġadvant": 5783,
      "Ġdrawn": 5784,
      "Ġdozen": 5785,
      "obile": 5786,
      "itzer": 5787,
      "Ġforces": 5788,
      "fessor": 5789,
      "ĠGreek": 5790,
      "Ġpresence": 5791,
      "ĠChicago": 5792,
      "ĠAcademy": 5793,
      "Ġmor": 5794,
      "Ġfarmer": 5795,
      "Ġworst": 5796,
      "Ġmagn": 5797,
      "Ġaware": 5798,
      "[$": 5799,
      "ĠSov": 5800,
      "about": 5801,
      "Ġtied": 5802,
      "Ġgat": 5803,
      "otion": 5804,
      "Ġproperty": 5805,
      "Ġtroops": 5806,
      "ĠMonday": 5807,
      "Ġfoc": 5808,
      "ients": 5809,
      "Ġjoke": 5810,
      "Ġfolks": 5811,
      "Ġweekend": 5812,
      "199": 5813,
      "Ġfully": 5814,
      "asty": 5815,
      "ieutenant": 5816,
      "Ġboots": 5817,
      "Ġdrove": 5818,
      "Nin": 5819,
      "Ġpsy": 5820,
      "Ġstaff": 5821,
      "Ġta": 5822,
      "nolog": 5823,
      "craft": 5824,
      "Ġpatient": 5825,
      "ĠSing": 5826,
      "nothing": 5827,
      "fle": 5828,
      "ummie": 5829,
      "IGHT": 5830,
      "Ġgather": 5831,
      "reedom": 5832,
      "Ġmile": 5833,
      "Ġsoup": 5834,
      "Ġcancer": 5835,
      "ĠDar": 5836,
      "ĠWood": 5837,
      "ĠEven": 5838,
      "Ġqual": 5839,
      "Ġpositive": 5840,
      "Ġrelationship": 5841,
      "Ġsite": 5842,
      "Ġmaterial": 5843,
      "sk": 5844,
      "Ġentirely": 5845,
      "Ġfriendly": 5846,
      "Ġexpress": 5847,
      "ĠHE": 5848,
      "Ġvoices": 5849,
      "40": 5850,
      "haha": 5851,
      "Ġprevious": 5852,
      "Ġrelease": 5853,
      "ajesty": 5854,
      "yan": 5855,
      "Grand": 5856,
      "aterpill": 5857,
      "Ġstaying": 5858,
      "Ġhorn": 5859,
      "Ġwa": 5860,
      "Ġscrew": 5861,
      "Ġshoulders": 5862,
      "Ġ1980": 5863,
      "BC": 5864,
      "ĠMass": 5865,
      "ique": 5866,
      "Ġfishing": 5867,
      "Ġaverage": 5868,
      "ouds": 5869,
      "peror": 5870,
      "Ġmaid": 5871,
      "Ġqueen": 5872,
      "Ġends": 5873,
      "Ġtheory": 5874,
      "Ġarg": 5875,
      "ĠRuth": 5876,
      "ĠBern": 5877,
      "azed": 5878,
      "aining": 5879,
      "Ġdistur": 5880,
      "ora": 5881,
      "ĠNic": 5882,
      "owing": 5883,
      "ilities": 5884,
      "ĠSuper": 5885,
      "Ġfond": 5886,
      "Ġburied": 5887,
      "Ġ2003": 5888,
      "spect": 5889,
      "ĠGordon": 5890,
      "vy": 5891,
      "ĠWestern": 5892,
      "ĠMexico": 5893,
      "Ġtouched": 5894,
      "talk": 5895,
      "ĠMus": 5896,
      "Ġveget": 5897,
      "Ġfrequ": 5898,
      "Ġsum": 5899,
      "Ġexcit": 5900,
      "Ġsignal": 5901,
      "ware": 5902,
      "Ġreported": 5903,
      "ĠAustralian": 5904,
      "ĠMajor": 5905,
      "Ġdrops": 5906,
      "ĠBecause": 5907,
      "Ġheav": 5908,
      "Ġepisode": 5909,
      "ILL": 5910,
      "aze": 5911,
      "Ġghost": 5912,
      "zzz": 5913,
      "etch": 5914,
      "icking": 5915,
      "Ġnorthern": 5916,
      "Ġdolly": 5917,
      "Ġgarage": 5918,
      "igned": 5919,
      "Ġkeys": 5920,
      "Ġdetermined": 5921,
      "Ġinn": 5922,
      "Ġweird": 5923,
      "Ġrank": 5924,
      "Ġtravell": 5925,
      "ĠOther": 5926,
      "istic": 5927,
      "Ġloose": 5928,
      "oving": 5929,
      "tt": 5930,
      "walk": 5931,
      "Ġmethod": 5932,
      "ĠMike": 5933,
      "appy": 5934,
      "ropical": 5935,
      "Ġgoal": 5936,
      "Ġacting": 5937,
      "whoa": 5938,
      "vis": 5939,
      "Ġshr": 5940,
      "Ġ0": 5941,
      "Ġrealized": 5942,
      "ĠRes": 5943,
      "Ġunderstood": 5944,
      "Ġfigures": 5945,
      "ĠSecret": 5946,
      "orter": 5947,
      "Ġcooking": 5948,
      "ulations": 5949,
      "Ġadvice": 5950,
      "60": 5951,
      "Ġfaster": 5952,
      "Ġexpression": 5953,
      "Ġprepar": 5954,
      "Ġocean": 5955,
      "Ġbecoming": 5956,
      "ĠIsrael": 5957,
      "ĠIreland": 5958,
      "Ġmummy": 5959,
      "Ġthrowing": 5960,
      "iece": 5961,
      "Ġgift": 5962,
      "Ġcrown": 5963,
      "tained": 5964,
      "Ġmixed": 5965,
      "Ġobjects": 5966,
      "Ġotherwise": 5967,
      "Ġtough": 5968,
      "Cap": 5969,
      "Ġshooting": 5970,
      "aging": 5971,
      "Ġaft": 5972,
      "ĠCollege": 5973,
      "Ġbeast": 5974,
      "Ġplat": 5975,
      "Ġexerc": 5976,
      "Ġcentral": 5977,
      "sters": 5978,
      "Ġlibr": 5979,
      "fa": 5980,
      "Ġcloud": 5981,
      "Ġreasons": 5982,
      "cho": 5983,
      "Ġsposta": 5984,
      "Ġdarkness": 5985,
      "ANT": 5986,
      "ĠPak": 5987,
      "bury": 5988,
      "Ġbend": 5989,
      "ĠDistrict": 5990,
      "Ġnewspaper": 5991,
      "Ġtypes": 5992,
      "ĠKar": 5993,
      "Ġdescribed": 5994,
      "low": 5995,
      "ila": 5996,
      "Ġstranger": 5997,
      "emon": 5998,
      "weet": 5999,
      "rial": 6000,
      "Ġ2002": 6001,
      "Ġ188": 6002,
      "Ġincludes": 6003,
      "Sam": 6004,
      "pha": 6005,
      "Ġcarriage": 6006,
      "Ġfamiliar": 6007,
      "ĠAtl": 6008,
      "Ġfan": 6009,
      "ĠJoseph": 6010,
      "ĠFar": 6011,
      "Ġyard": 6012,
      "ĠHot": 6013,
      "cel": 6014,
      "ĠHon": 6015,
      "Ġcircumst": 6016,
      "Eleanor": 6017,
      "Ġlies": 6018,
      "ĠChris": 6019,
      "unts": 6020,
      "ĠBart": 6021,
      "Ġboxes": 6022,
      "ocratic": 6023,
      "Didn": 6024,
      "Ġestabl": 6025,
      "ĠAfrican": 6026,
      "23": 6027,
      "Ġduh": 6028,
      "Ġknees": 6029,
      "Ġentertain": 6030,
      "Act": 6031,
      "ĠLo": 6032,
      "Ġmagnet": 6033,
      "Ġveh": 6034,
      "ĠPh": 6035,
      "Ġminister": 6036,
      "ĠArt": 6037,
      "Ġstones": 6038,
      "ĠDen": 6039,
      "orse": 6040,
      "Ġsports": 6041,
      "ential": 6042,
      "ĠPurdie": 6043,
      "ĠHaw": 6044,
      "playing": 6045,
      "UST": 6046,
      "Aye": 6047,
      "Ġpointed": 6048,
      "Ġinstant": 6049,
      "ĠRec": 6050,
      "Ġreceive": 6051,
      "Ġcourage": 6052,
      "ĠGovernor": 6053,
      "Ġpaying": 6054,
      "Ġhug": 6055,
      "ĠBru": 6056,
      "Ġuniversity": 6057,
      "bar": 6058,
      "nam": 6059,
      "Ġgathered": 6060,
      "Ha": 6061,
      "rang": 6062,
      "Ġcomment": 6063,
      "Ġpointing": 6064,
      "dis": 6065,
      "ela": 6066,
      "Ġmirror": 6067,
      "ĠSee": 6068,
      "choo": 6069,
      "Ġsword": 6070,
      "Ġhidden": 6071,
      "osition": 6072,
      "Ġleaf": 6073,
      "Ġdu": 6074,
      "ĠVirgin": 6075,
      "ĠMore": 6076,
      "pretend": 6077,
      "iamond": 6078,
      "angle": 6079,
      "Ġsecurity": 6080,
      "Ġwore": 6081,
      "ĠPrime": 6082,
      "Ġnu": 6083,
      "Ġfamilies": 6084,
      "illed": 6085,
      "Ġdamage": 6086,
      "Ġdegree": 6087,
      "Ġexcitement": 6088,
      "Ma": 6089,
      "OD": 6090,
      "ĠVal": 6091,
      "Ġpulls": 6092,
      "Ġcats": 6093,
      "Ġcups": 6094,
      "Ġsport": 6095,
      "soft": 6096,
      "OME": 6097,
      "oma": 6098,
      "berries": 6099,
      "gain": 6100,
      "law": 6101,
      "sung": 6102,
      "ĠSoviet": 6103,
      "ĠCath": 6104,
      "Ġfold": 6105,
      "En": 6106,
      "Once": 6107,
      "Ġcampaign": 6108,
      "ja": 6109,
      "Ġaside": 6110,
      "Ġrise": 6111,
      "Ġdesire": 6112,
      "ĠScotland": 6113,
      "[.": 6114,
      "Ġdying": 6115,
      "Ġplastic": 6116,
      "Ġstops": 6117,
      "nice": 6118,
      "Ġplanet": 6119,
      "Ġ--": 6120,
      "Ġwaves": 6121,
      "Carl": 6122,
      "aboo": 6123,
      "Ã¤": 6124,
      "Ġtractor": 6125,
      "Ġpartner": 6126,
      "Ġkm": 6127,
      "Ġlocked": 6128,
      "uan": 6129,
      "rif": 6130,
      "Ġpulling": 6131,
      "Ġcharacters": 6132,
      "Fraser": 6133,
      "IV": 6134,
      "Ġwid": 6135,
      "Ġslept": 6136,
      "AI": 6137,
      "ima": 6138,
      "ĠWE": 6139,
      "ulous": 6140,
      "Ġlone": 6141,
      "Ġobserved": 6142,
      "esides": 6143,
      "hib": 6144,
      "arts": 6145,
      "atsy": 6146,
      "Ġdesper": 6147,
      "ĠCentral": 6148,
      "Ġamazing": 6149,
      "Ġcris": 6150,
      "Ġpolicy": 6151,
      "rough": 6152,
      "ĠHi": 6153,
      "sn": 6154,
      "Ġinha": 6155,
      "enced": 6156,
      "ĠSil": 6157,
      "ĠLin": 6158,
      "Ġconfess": 6159,
      "Ġsouthern": 6160,
      "ĠLos": 6161,
      "ĠEleanor": 6162,
      "ĠBea": 6163,
      "ITH": 6164,
      "Ġyards": 6165,
      "lam": 6166,
      "ooper": 6167,
      "Ġcrash": 6168,
      "ĠCH": 6169,
      "hh": 6170,
      "Ġforms": 6171,
      "ĠLab": 6172,
      "Cha": 6173,
      "Ġtask": 6174,
      "Ġthroughout": 6175,
      "Ġactivity": 6176,
      "chair": 6177,
      "ĠCanadian": 6178,
      "oston": 6179,
      "Ġcommunic": 6180,
      "Ġcompanion": 6181,
      "Ġscreen": 6182,
      "Ġowner": 6183,
      "Pr": 6184,
      "Ġast": 6185,
      "Nice": 6186,
      "Ġhunt": 6187,
      "Ġrom": 6188,
      "ĠEmpire": 6189,
      "Ġvent": 6190,
      "Ġsurely": 6191,
      "Ġmatches": 6192,
      "Ġsymp": 6193,
      "Ġfac": 6194,
      "remember": 6195,
      "HER": 6196,
      "uns": 6197,
      "ological": 6198,
      "ann": 6199,
      "nope": 6200,
      "ĠSaint": 6201,
      "iest": 6202,
      "yo": 6203,
      "III": 6204,
      "ĠIrish": 6205,
      "ĠMur": 6206,
      "Ġmagazine": 6207,
      "\"?": 6208,
      "Ġladder": 6209,
      "innie": 6210,
      "Ġtrains": 6211,
      "Ġpic": 6212,
      "ROZ": 6213,
      "ias": 6214,
      "Ġcrayons": 6215,
      "wa": 6216,
      "mes": 6217,
      "fire": 6218,
      ".âĢĻ": 6219,
      "ishop": 6220,
      "Ġaim": 6221,
      "Ġdestroyed": 6222,
      "',": 6223,
      "Ġwrest": 6224,
      "Ġcopy": 6225,
      "21": 6226,
      "den": 6227,
      "Ġforeign": 6228,
      "Ġcitiz": 6229,
      "Ġwestern": 6230,
      "Ġapartment": 6231,
      "Ġlord": 6232,
      "Ġchampions": 6233,
      "bird": 6234,
      "Ġhonour": 6235,
      "Ġsore": 6236,
      "ĠChampionship": 6237,
      "Ġmedical": 6238,
      "vocalize": 6239,
      "stead": 6240,
      "neath": 6241,
      "ĠVictor": 6242,
      "Ġapparently": 6243,
      "Ġeffects": 6244,
      "Ġnervous": 6245,
      "Father": 6246,
      "ado": 6247,
      "iance": 6248,
      "iverse": 6249,
      "Ġfairy": 6250,
      "David": 6251,
      "EW": 6252,
      "Ġfart": 6253,
      "El": 6254,
      "ederal": 6255,
      "oles": 6256,
      "Ġwondered": 6257,
      "Ġbuildings": 6258,
      "Ġcurious": 6259,
      "lets": 6260,
      "Ġissue": 6261,
      "Ġmeas": 6262,
      "Ġrecently": 6263,
      "Ġtreasure": 6264,
      "Ġstreets": 6265,
      "CA": 6266,
      "ahhah": 6267,
      "Ġdrama": 6268,
      "Ġseparate": 6269,
      "LAU": 6270,
      "Ġinstru": 6271,
      "Ġdreams": 6272,
      "eps": 6273,
      "uesday": 6274,
      "24": 6275,
      "ĠPrin": 6276,
      "Ġslightly": 6277,
      "EM": 6278,
      "Ġblame": 6279,
      "Ġcontr": 6280,
      "Ġbrilliant": 6281,
      "ĠHave": 6282,
      "Ġinterview": 6283,
      "ipping": 6284,
      "Ġprogress": 6285,
      "met": 6286,
      "Ġgrie": 6287,
      "aring": 6288,
      "ĠCast": 6289,
      "ĠPen": 6290,
      "aval": 6291,
      "Ġlistened": 6292,
      "Ġcookies": 6293,
      "Ġuseful": 6294,
      "Ġess": 6295,
      "Ġrang": 6296,
      "Ġphil": 6297,
      "ĠSqu": 6298,
      "igan": 6299,
      "ĠVan": 6300,
      "Ġsweetheart": 6301,
      "via": 6302,
      "ĠHill": 6303,
      "Ġconstit": 6304,
      "za": 6305,
      "Ġarran": 6306,
      "Ġgray": 6307,
      "ĠJeff": 6308,
      "Ġrequest": 6309,
      "Ġgiant": 6310,
      "Ġ1970": 6311,
      "\"'": 6312,
      "Ġmamma": 6313,
      "urance": 6314,
      "Ell": 6315,
      "Ġdish": 6316,
      "ĠHA": 6317,
      "Ġrecorded": 6318,
      "ilty": 6319,
      "asing": 6320,
      "Christ": 6321,
      "Ġspite": 6322,
      "rant": 6323,
      "ugh": 6324,
      "ands": 6325,
      "Other": 6326,
      "Ġodd": 6327,
      "ĠTer": 6328,
      "Ġairplane": 6329,
      "Ġinstr": 6330,
      "Ġcurrently": 6331,
      "Ġtoes": 6332,
      "Ġstepped": 6333,
      "Ġwooden": 6334,
      "Ġstrike": 6335,
      "Most": 6336,
      "Ġbunch": 6337,
      "Ġinit": 6338,
      "liver": 6339,
      "Ġproved": 6340,
      "Ġhandsome": 6341,
      "itzerland": 6342,
      "sighs": 6343,
      "Ġmeasure": 6344,
      "Ġspo": 6345,
      "amm": 6346,
      "ĠMet": 6347,
      "Ġactive": 6348,
      "Ġsymb": 6349,
      "tons": 6350,
      "Ġ31": 6351,
      "Bet": 6352,
      "ĠSol": 6353,
      "ault": 6354,
      "Ġowned": 6355,
      "Help": 6356,
      "ĠBa": 6357,
      "ĠGet": 6358,
      "Ġpow": 6359,
      "Ġspr": 6360,
      "Ġstom": 6361,
      "ĠKim": 6362,
      "Ġformula": 6363,
      "ati": 6364,
      "Ġwounded": 6365,
      "cod": 6366,
      "Ġscore": 6367,
      "Ġcutting": 6368,
      "ĠMos": 6369,
      "kiss": 6370,
      "Ġinvited": 6371,
      "Ġbra": 6372,
      "apping": 6373,
      "Ġjumping": 6374,
      "Ġsocks": 6375,
      "Ġchannel": 6376,
      "Ġencour": 6377,
      "ĠAngeles": 6378,
      "erves": 6379,
      "Ġperformance": 6380,
      "NOW": 6381,
      "Ġbecomes": 6382,
      "Ġtrial": 6383,
      "Ġfier": 6384,
      "ĠNick": 6385,
      "Ġtotally": 6386,
      "umn": 6387,
      "Ġpicking": 6388,
      "Ġexcellent": 6389,
      "Ġstatistics": 6390,
      "Ġestablished": 6391,
      "ano": 6392,
      "Ġgently": 6393,
      "ĠNight": 6394,
      "Ġchairs": 6395,
      "Sc": 6396,
      "Ġachie": 6397,
      "Ġlifted": 6398,
      "Care": 6399,
      "Ġsisters": 6400,
      "Ġinfluence": 6401,
      "ursday": 6402,
      "ani": 6403,
      "ĠJerry": 6404,
      "ĠâĮĬ": 6405,
      "kee": 6406,
      "Ġautom": 6407,
      "Ġmainly": 6408,
      "Ġdata": 6409,
      "AB": 6410,
      "Americ": 6411,
      "Ġsole": 6412,
      "Ġbreaking": 6413,
      "ĠAmericans": 6414,
      "Ġperformed": 6415,
      "ĠSteven": 6416,
      "Ġrooms": 6417,
      "ua": 6418,
      "Ġcredit": 6419,
      "amin": 6420,
      "ĠStar": 6421,
      "Ġhelps": 6422,
      "ping": 6423,
      "riff": 6424,
      "umper": 6425,
      "Ġrush": 6426,
      "âĮĪ": 6427,
      "ĠMars": 6428,
      "Ġ2023": 6429,
      "ĠSwitzerland": 6430,
      "Ġfeather": 6431,
      "While": 6432,
      "Ġcash": 6433,
      "Ġoblig": 6434,
      "Ġprisoners": 6435,
      "heast": 6436,
      "Ġliber": 6437,
      "Ġaccess": 6438,
      "Ġfortune": 6439,
      "voc": 6440,
      "Ġjigs": 6441,
      "ĠEdward": 6442,
      "Ġmap": 6443,
      "Ġenjoyed": 6444,
      "ailed": 6445,
      "Ġrestaur": 6446,
      "Ġengaged": 6447,
      "gend": 6448,
      "osen": 6449,
      "Ġstudent": 6450,
      "Ġcraft": 6451,
      "Ġhunting": 6452,
      "dog": 6453,
      "Ġdivided": 6454,
      "Ġhabit": 6455,
      "Ġsorts": 6456,
      "Ġwan": 6457,
      "âĢĶâĢĶ": 6458,
      "Ġremoved": 6459,
      "untary": 6460,
      "Ġbesides": 6461,
      "Ġenvironment": 6462,
      "ĠRoger": 6463,
      "icing": 6464,
      "ĠJimmie": 6465,
      "oos": 6466,
      "Ġrent": 6467,
      "ĠBaby": 6468,
      "Ġrapidly": 6469,
      "Ġraise": 6470,
      "Ġclouds": 6471,
      "Ġpatter": 6472,
      "itcher": 6473,
      "Ġholes": 6474,
      "Ġbrief": 6475,
      "ĠRam": 6476,
      "Ġrecorder": 6477,
      "Ġmort": 6478,
      "Ġfox": 6479,
      "had": 6480,
      "Ġresponsible": 6481,
      "Ġhesit": 6482,
      "ĠHello": 6483,
      "Ġsplend": 6484,
      "enth": 6485,
      "Ġtraffic": 6486,
      "Ġrear": 6487,
      "Ġupper": 6488,
      "Ġadop": 6489,
      "Ġcompanies": 6490,
      "Ġwow": 6491,
      "Ġtransl": 6492,
      "aterpillar": 6493,
      "Ġcreate": 6494,
      "âĢķ": 6495,
      "Ġgradu": 6496,
      "Ġweapons": 6497,
      "Make": 6498,
      "ĠSyl": 6499,
      "Ġgolden": 6500,
      "reck": 6501,
      "Ġours": 6502,
      "Ġunus": 6503,
      "Ġadvantage": 6504,
      "Ġï¿½ï¿½ï¿½ï¿½": 6505,
      "Ġwire": 6506,
      "mouth": 6507,
      "ĠDiv": 6508,
      "Ġbodies": 6509,
      "Fine": 6510,
      "ĠTed": 6511,
      "Ġawake": 6512,
      "uries": 6513,
      "Ġsection": 6514,
      "ĠCourt": 6515,
      "Ġtrunk": 6516,
      "Early": 6517,
      "ko": 6518,
      "Ġtip": 6519,
      "Joe": 6520,
      "estival": 6521,
      "engers": 6522,
      "Ġlaws": 6523,
      "ĠBarb": 6524,
      "Ġetc": 6525,
      "Ġ1960": 6526,
      "Ġdifficulty": 6527,
      "Ġtarget": 6528,
      "Ed": 6529,
      "ĠVer": 6530,
      "Ġheight": 6531,
      "unning": 6532,
      "Ġlanded": 6533,
      "ĠBoston": 6534,
      "ĠFox": 6535,
      "Ġsomehow": 6536,
      "tin": 6537,
      "Ġtowns": 6538,
      "Ġbeneath": 6539,
      "ĠLatin": 6540,
      "Ġburning": 6541,
      "Ġscarcely": 6542,
      "Over": 6543,
      "Ġfields": 6544,
      "Ben": 6545,
      "Ġcolour": 6546,
      "isha": 6547,
      "ĠZeal": 6548,
      "too": 6549,
      "Ġcreature": 6550,
      "nesday": 6551,
      "Ġresist": 6552,
      "Ġfeatures": 6553,
      "ĠPost": 6554,
      "ĠGe": 6555,
      "Ġnation": 6556,
      "ĠHal": 6557,
      "Ġdeliver": 6558,
      "OP": 6559,
      "ĠWhile": 6560,
      "inal": 6561,
      "geant": 6562,
      "Ġproduction": 6563,
      "Ġlearning": 6564,
      "Ġexciting": 6565,
      "Ġpale": 6566,
      "Ġforgive": 6567,
      "Ġrecording": 6568,
      "Ġevidently": 6569,
      "ĠPakistan": 6570,
      "Ġcant": 6571,
      "ĠRh": 6572,
      "Ġborrow": 6573,
      "Ġgreatly": 6574,
      "ication": 6575,
      "Ġplanning": 6576,
      "Ġpuppy": 6577,
      "Ġreview": 6578,
      "Ġ(;": 6579,
      "lim": 6580,
      "Ġfaint": 6581,
      "turns": 6582,
      "Ġwashed": 6583,
      "Ġ1999": 6584,
      "Anyway": 6585,
      "yay": 6586,
      "Ġglance": 6587,
      "Ġhorsie": 6588,
      "usted": 6589,
      "Ġshame": 6590,
      "Ġpurse": 6591,
      "Ġtender": 6592,
      "pot": 6593,
      "ootball": 6594,
      "istry": 6595,
      "Ġwra": 6596,
      "Ġborder": 6597,
      "umble": 6598,
      "Ġprize": 6599,
      "hang": 6600,
      "Ġalarm": 6601,
      "ĠElizabeth": 6602,
      "Ġnearer": 6603,
      "Nobody": 6604,
      "Ġterrit": 6605,
      "Ġclosely": 6606,
      "Ġexperien": 6607,
      "ĠSteve": 6608,
      "Think": 6609,
      "Ġcompeted": 6610,
      "Ġprincess": 6611,
      "Ġintellig": 6612,
      "Ġterror": 6613,
      "pointing": 6614,
      "ĠZealand": 6615,
      "SC": 6616,
      "Ġequal": 6617,
      "umed": 6618,
      "Ġcandy": 6619,
      "Ġgang": 6620,
      "ĠLove": 6621,
      "Ġtear": 6622,
      "Ġ186": 6623,
      "lot": 6624,
      "Ġben": 6625,
      "bot": 6626,
      "chuckles": 6627,
      "Ġbranch": 6628,
      "Ġjacket": 6629,
      "Ġfal": 6630,
      "Ġfrogs": 6631,
      "Ġresults": 6632,
      "ĠHol": 6633,
      "iation": 6634,
      "Ġseventy": 6635,
      "Ġbrings": 6636,
      "Ġleaders": 6637,
      "ĠBritain": 6638,
      "asped": 6639,
      "Ġdescend": 6640,
      "Ġhearts": 6641,
      "Ġgrant": 6642,
      "ĠBrad": 6643,
      "Ġhills": 6644,
      "Ġexchan": 6645,
      "ĠBest": 6646,
      "orence": 6647,
      "Ġmerc": 6648,
      "Ġbloody": 6649,
      "Ġtreated": 6650,
      "wan": 6651,
      "ĠHER": 6652,
      "Ġpresently": 6653,
      "Ġordinary": 6654,
      "Ġbadly": 6655,
      "ĠRon": 6656,
      "Ġswear": 6657,
      "inson": 6658,
      "Ġapolog": 6659,
      "coughs": 6660,
      "Ġlack": 6661,
      "eral": 6662,
      "ĠYoung": 6663,
      "Ġunif": 6664,
      "Ã©e": 6665,
      "Ġspecific": 6666,
      "ĠLike": 6667,
      "Ġsuffe": 6668,
      "were": 6669,
      "Ġairport": 6670,
      "Ġlonely": 6671,
      "Has": 6672,
      "ĠRom": 6673,
      "Ġkidding": 6674,
      "ateg": 6675,
      "ĠArthur": 6676,
      "thew": 6677,
      "ointment": 6678,
      "Ġbags": 6679,
      "Ġlosing": 6680,
      "Ġhorrible": 6681,
      "Ġlibrary": 6682,
      "apa": 6683,
      "Ġslipped": 6684,
      "Ġpalace": 6685,
      "ĠWomen": 6686,
      "Ġspare": 6687,
      "Ġregret": 6688,
      "Ġsympat": 6689,
      "rose": 6690,
      "Ġsupply": 6691,
      "Ġtransport": 6692,
      "ĠParliament": 6693,
      "cow": 6694,
      "Ġguilty": 6695,
      "IA": 6696,
      "Ġcheek": 6697,
      "care": 6698,
      "Ġhomes": 6699,
      "ĠCle": 6700,
      "Ġnormally": 6701,
      "ĠAT": 6702,
      "Ġ1996": 6703,
      "ongrat": 6704,
      "Ġ187": 6705,
      "ĠJimmy": 6706,
      "inned": 6707,
      "ddie": 6708,
      "Ġreligion": 6709,
      "Ġjobs": 6710,
      "Ġpurs": 6711,
      "ĠProfessor": 6712,
      "Ġexecut": 6713,
      "nology": 6714,
      "Michael": 6715,
      "ĠAssoci": 6716,
      "stein": 6717,
      "org": 6718,
      "...\"": 6719,
      "Ġlod": 6720,
      "lock": 6721,
      "igator": 6722,
      "Ġmighty": 6723,
      "Ġbranches": 6724,
      "ares": 6725,
      "Ġcouch": 6726,
      "Ġpity": 6727,
      "Ġdoggie": 6728,
      "bec": 6729,
      "ĠGovernment": 6730,
      "Ġindividual": 6731,
      "ĠCorn": 6732,
      "Ġfolk": 6733,
      "During": 6734,
      "Ġrushed": 6735,
      "Ġgreet": 6736,
      "ouri": 6737,
      "ĠWAS": 6738,
      "acle": 6739,
      "Ġ1992": 6740,
      "Ġagre": 6741,
      "Ġaccepted": 6742,
      "ĠWed": 6743,
      "ĠFire": 6744,
      "Ġqueer": 6745,
      "formed": 6746,
      "Ġreckon": 6747,
      "JO": 6748,
      "Ġcomplet": 6749,
      "Ġcommun": 6750,
      "toys": 6751,
      "Ġguest": 6752,
      "KAR": 6753,
      "ĠTy": 6754,
      "More": 6755,
      "ĠCamp": 6756,
      "Ġsigns": 6757,
      "rapes": 6758,
      "hot": 6759,
      "icket": 6760,
      "Ġunderneath": 6761,
      "giggles": 6762,
      "Ġprisoner": 6763,
      "Ġvictory": 6764,
      "Ġstomach": 6765,
      "Ġpoo": 6766,
      "Ġsticks": 6767,
      "Ġcompetition": 6768,
      "Ġsmooth": 6769,
      "Sometimes": 6770,
      "Ġtal": 6771,
      "Ġroy": 6772,
      "Ġreplaced": 6773,
      "door": 6774,
      "Ġprofessor": 6775,
      "Ġsumm": 6776,
      "Ġgor": 6777,
      "ĠHind": 6778,
      "Ġbricks": 6779,
      "ception": 6780,
      "Ġlads": 6781,
      "Ġmerry": 6782,
      "Ġshower": 6783,
      "ĠChair": 6784,
      "Nor": 6785,
      "ĠFa": 6786,
      "ĠLes": 6787,
      "ousers": 6788,
      "Ġguitar": 6789,
      "Ġhath": 6790,
      "Ġrelief": 6791,
      "Ġrolling": 6792,
      "COL": 6793,
      "Ġpants": 6794,
      "ĠAndy": 6795,
      "Ġcircumstances": 6796,
      "ador": 6797,
      "Ġballs": 6798,
      "Ġdelay": 6799,
      "Ġbutterfly": 6800,
      "Ġtooth": 6801,
      "Ġgay": 6802,
      "ĠIll": 6803,
      "ĠOl": 6804,
      "ĠOx": 6805,
      "Ġchosen": 6806,
      "?'": 6807,
      "Ġthousands": 6808,
      "Ġ1998": 6809,
      "Ġpony": 6810,
      "eaking": 6811,
      "Ġindustry": 6812,
      "Ġrefused": 6813,
      "Ġincident": 6814,
      "Ġadmit": 6815,
      "Ġcot": 6816,
      "Ġpure": 6817,
      "engu": 6818,
      "ura": 6819,
      "Ġrequired": 6820,
      "nament": 6821,
      "Ġcandid": 6822,
      "elcome": 6823,
      "hus": 6824,
      "ĠBO": 6825,
      "Ġmyst": 6826,
      "ĠBefore": 6827,
      "zer": 6828,
      "Ġpresents": 6829,
      "ĠGeorg": 6830,
      "gency": 6831,
      "ĠMY": 6832,
      "ĠFore": 6833,
      "ELA": 6834,
      "Helen": 6835,
      "ĠApp": 6836,
      "Ġdolls": 6837,
      "Ġwinning": 6838,
      "centr": 6839,
      "Ġlink": 6840,
      "IE": 6841,
      "enger": 6842,
      "Ġeats": 6843,
      "Ġindependent": 6844,
      "Ġwagon": 6845,
      "onia": 6846,
      "Ġdere": 6847,
      "athan": 6848,
      "sell": 6849,
      "ĠServ": 6850,
      "emies": 6851,
      "Ġhammer": 6852,
      "Ġnodd": 6853,
      "Ġintroduced": 6854,
      "Ġbeer": 6855,
      "ĠSince": 6856,
      "Ġteaching": 6857,
      "Ġdecor": 6858,
      "Ġprotest": 6859,
      "Ġcontent": 6860,
      "Ġoriginally": 6861,
      "Ġconv": 6862,
      "Ġsplit": 6863,
      "Ġbone": 6864,
      "Ġpiano": 6865,
      "Ġinvol": 6866,
      "ĠAny": 6867,
      "Ġgir": 6868,
      "kel": 6869,
      "Ġrode": 6870,
      "Ġchamp": 6871,
      "Ġmusical": 6872,
      "stra": 6873,
      "Ġdunno": 6874,
      "!'": 6875,
      "Ġhoping": 6876,
      "Ġicecream": 6877,
      "ĠMajesty": 6878,
      "Ġreligious": 6879,
      "Ġpile": 6880,
      "help": 6881,
      "dro": 6882,
      "Ġbears": 6883,
      "ava": 6884,
      "Ġescaped": 6885,
      "Ġrejo": 6886,
      "odd": 6887,
      "Ġaer": 6888,
      "Ġanno": 6889,
      "ĠLy": 6890,
      "Ġplanned": 6891,
      "Ġcaptured": 6892,
      "Ġpond": 6893,
      "Ġgrace": 6894,
      "Ġ1995": 6895,
      "ĠCatholic": 6896,
      "ami": 6897,
      "Ġdeer": 6898,
      "Ġattacked": 6899,
      "Ġcoal": 6900,
      "Another": 6901,
      "ĠJulia": 6902,
      "Ġsets": 6903,
      "scream": 6904,
      "ONE": 6905,
      "gers": 6906,
      "ĠAp": 6907,
      "Ġhoped": 6908,
      "Ġchanging": 6909,
      "Ġbaseball": 6910,
      "ĠRod": 6911,
      "Ġrecognized": 6912,
      "Ġadvance": 6913,
      "Ġavoid": 6914,
      "Ġbelongs": 6915,
      "ELS": 6916,
      "long": 6917,
      "Ġsevere": 6918,
      "ĠSE": 6919,
      "Ġdemon": 6920,
      "ĠClub": 6921,
      "Ġfifth": 6922,
      "GER": 6923,
      "ĠWay": 6924,
      "Ġseriously": 6925,
      "Remember": 6926,
      "uous": 6927,
      "Ġadministr": 6928,
      "Ġdawn": 6929,
      "first": 6930,
      "Ġlit": 6931,
      "Ġgrate": 6932,
      "Leave": 6933,
      "Ġwolf": 6934,
      "Ġjigsaw": 6935,
      "shine": 6936,
      "27": 6937,
      "Ġgoat": 6938,
      "Ġchim": 6939,
      "Ġknight": 6940,
      "Ġchick": 6941,
      "Ġconditions": 6942,
      "Ġconce": 6943,
      "Out": 6944,
      "Ġcounter": 6945,
      "Ġpitch": 6946,
      "Ġintended": 6947,
      "ĠColonel": 6948,
      "Ġpilot": 6949,
      "ĠPolly": 6950,
      "ilet": 6951,
      "Ġfarther": 6952,
      "Ġcru": 6953,
      "ĠBird": 6954,
      "Ġmustn": 6955,
      "ĠMarg": 6956,
      "Ġexpensive": 6957,
      "ĠProvince": 6958,
      "ĠThanks": 6959,
      "Ġdishes": 6960,
      "Ġadmir": 6961,
      "Ġmechan": 6962,
      "Ġdrown": 6963,
      "Ġ1994": 6964,
      "Ġbones": 6965,
      "Ġpitcher": 6966,
      "Ġchain": 6967,
      "Ġdivor": 6968,
      "Ġquality": 6969,
      "Ġcrossed": 6970,
      "Mark": 6971,
      "icted": 6972,
      "Captain": 6973,
      "28": 6974,
      "Ġparties": 6975,
      "overy": 6976,
      "ĠTommy": 6977,
      "Ġcomr": 6978,
      "Ġmoments": 6979,
      "rences": 6980,
      "Ġpipe": 6981,
      "KAT": 6982,
      "Ġaid": 6983,
      "Ġtom": 6984,
      "Ġthorough": 6985,
      "Ġgrandfather": 6986,
      "ĠGab": 6987,
      "squ": 6988,
      "Ġrecords": 6989,
      "Ġparticip": 6990,
      "hew": 6991,
      "Ġsatisfied": 6992,
      "eight": 6993,
      "Ġunp": 6994,
      "Ġtemperature": 6995,
      "ĠStep": 6996,
      "Ġrolled": 6997,
      "Ġcommer": 6998,
      "Call": 6999,
      "alds": 7000,
      "Ġdump": 7001,
      "Ġsteam": 7002,
      "iture": 7003,
      "ĠGirl": 7004,
      "Ġprovided": 7005,
      "Te": 7006,
      "eding": 7007,
      "push": 7008,
      "ĠFil": 7009,
      "gging": 7010,
      "Stay": 7011,
      "Ġhurts": 7012,
      "Ġgrandmother": 7013,
      "Ġcompanions": 7014,
      "Ġpicnic": 7015,
      "ammy": 7016,
      "Ġcomedy": 7017,
      "Ġremains": 7018,
      "Ġbon": 7019,
      "ĠTown": 7020,
      "Ġsuffic": 7021,
      "ĠDorothy": 7022,
      "Ã±": 7023,
      "oli": 7024,
      "new": 7025,
      "stitute": 7026,
      "Ġthrows": 7027,
      "Ġsource": 7028,
      "Ġanti": 7029,
      "Ġtrem": 7030,
      "Ġcruel": 7031,
      "Ġsentence": 7032,
      "Ġcurtain": 7033,
      "Ġspeaks": 7034,
      "Ġwaters": 7035,
      "Ġweapon": 7036,
      "EF": 7037,
      "dri": 7038,
      "Ġappointed": 7039,
      "],": 7040,
      "Ġkissed": 7041,
      "Ġshadow": 7042,
      "olution": 7043,
      "Sm": 7044,
      "rain": 7045,
      "ĠGil": 7046,
      "Ġadventure": 7047,
      "alo": 7048,
      "yard": 7049,
      "ĠUp": 7050,
      "SS": 7051,
      "sembly": 7052,
      "Ġappears": 7053,
      "Ġwoke": 7054,
      "Ġlesson": 7055,
      "Ġprovide": 7056,
      "Ġdemanded": 7057,
      "ros": 7058,
      "ĠGames": 7059,
      "Ġrecomm": 7060,
      "Ġculture": 7061,
      "iraffe": 7062,
      "Ġgained": 7063,
      "Ġnotes": 7064,
      "ĠHy": 7065,
      "Ġentrance": 7066,
      "Ġpean": 7067,
      "bling": 7068,
      "erg": 7069,
      "something": 7070,
      "ĠOnly": 7071,
      "Ġdivision": 7072,
      "umes": 7073,
      "ĠJon": 7074,
      "Ġactual": 7075,
      "Ġdrug": 7076,
      "Ġhasta": 7077,
      "Ġyum": 7078,
      "Ġsignific": 7079,
      "ĠAllah": 7080,
      "Ġdesigned": 7081,
      "June": 7082,
      "Ġash": 7083,
      "emic": 7084,
      "Ġgrandma": 7085,
      "ĠAng": 7086,
      "ĠBre": 7087,
      "Ġbitter": 7088,
      "hamed": 7089,
      "ompl": 7090,
      "stone": 7091,
      "ivity": 7092,
      "Ġlessons": 7093,
      "Ġcritic": 7094,
      "ught": 7095,
      "Ġinsp": 7096,
      "Ġsaus": 7097,
      "Ġdrunk": 7098,
      "Ġyo": 7099,
      "Ġ1997": 7100,
      "Ġapproach": 7101,
      "Ġgy": 7102,
      "Ġwealth": 7103,
      "Ġsweetie": 7104,
      "Many": 7105,
      "Ġsoap": 7106,
      "Ġlegal": 7107,
      "Ġearnest": 7108,
      "Ġfant": 7109,
      "gery": 7110,
      "clear": 7111,
      "umbled": 7112,
      "hmm": 7113,
      "Ġfinds": 7114,
      "26": 7115,
      "Hmm": 7116,
      "Ġguide": 7117,
      "Ġpassage": 7118,
      "rans": 7119,
      "ekaboo": 7120,
      "MAN": 7121,
      "Ġyyy": 7122,
      "ĠBrian": 7123,
      "ability": 7124,
      "Ġhappiness": 7125,
      "ĠThree": 7126,
      "Still": 7127,
      "Ġstack": 7128,
      "Jim": 7129,
      "found": 7130,
      "Ġtoss": 7131,
      "Ġrot": 7132,
      "ĠLand": 7133,
      "Ġconqu": 7134,
      "rank": 7135,
      "gi": 7136,
      "Ġdoggy": 7137,
      "Ġoccurred": 7138,
      "Ġdim": 7139,
      "Ġseated": 7140,
      "Ġbelief": 7141,
      "hetti": 7142,
      "eks": 7143,
      "ram": 7144,
      "ĠLieutenant": 7145,
      "Ġlorry": 7146,
      "arian": 7147,
      "dat": 7148,
      "Ġtale": 7149,
      "ĠEric": 7150,
      "Ġflash": 7151,
      "Ġpoison": 7152,
      "Ġtruly": 7153,
      "umph": 7154,
      "boo": 7155,
      "Ġsang": 7156,
      "Ġmarks": 7157,
      "Ġload": 7158,
      "Ġstructure": 7159,
      "Ġeagerly": 7160,
      "iffe": 7161,
      "Ġconnected": 7162,
      "Ġnic": 7163,
      "opter": 7164,
      "non": 7165,
      "unior": 7166,
      "hia": 7167,
      "azz": 7168,
      "shouts": 7169,
      "Ġclimbed": 7170,
      "Ġjail": 7171,
      "VID": 7172,
      "ĠPeggy": 7173,
      "Ġrecognize": 7174,
      "ĠCongress": 7175,
      "Ġenemies": 7176,
      "esh": 7177,
      "ĠCam": 7178,
      "avis": 7179,
      "Åį": 7180,
      "Ġoven": 7181,
      "Ġuseta": 7182,
      "Ġsystems": 7183,
      "Up": 7184,
      "Ġtransfer": 7185,
      "Ġroyal": 7186,
      "Ġcave": 7187,
      "Ġconsequ": 7188,
      "isl": 7189,
      "ĠAbout": 7190,
      "Ġfoll": 7191,
      "issa": 7192,
      "Ġsetting": 7193,
      "Ġnoble": 7194,
      "ĠHa": 7195,
      "Ġrhy": 7196,
      "ĠWater": 7197,
      "Ġwarning": 7198,
      "Ġtyp": 7199,
      "Ġproduce": 7200,
      "Ġarrested": 7201,
      "uzz": 7202,
      "ĠBas": 7203,
      "Ġauthority": 7204,
      "Hurry": 7205,
      "Ġliqu": 7206,
      "awa": 7207,
      "Ġguests": 7208,
      "Ġrib": 7209,
      "Ġsuffered": 7210,
      "whispered": 7211,
      "Ġfate": 7212,
      "ĠCons": 7213,
      "Ġbeans": 7214,
      "Ġselected": 7215,
      "Ġrug": 7216,
      "ĠStone": 7217,
      "Ġfunction": 7218,
      "Everybody": 7219,
      "Ġceased": 7220,
      "Ġbreast": 7221,
      "Â¶": 7222,
      "Ġpapa": 7223,
      "Ġsplendid": 7224,
      "Ġwhenever": 7225,
      "Ġincreased": 7226,
      "ĠTor": 7227,
      "otes": 7228,
      "addle": 7229,
      "Ġsooner": 7230,
      "Ġrescue": 7231,
      "Ġstor": 7232,
      "char": 7233,
      "Ġdelighted": 7234,
      "lers": 7235,
      "onsense": 7236,
      "Ġstatement": 7237,
      "Ġstandard": 7238,
      "Ġbucket": 7239,
      "Ġcig": 7240,
      "Ġpant": 7241,
      "Ġracing": 7242,
      "ĠNob": 7243,
      "Ġgotten": 7244,
      "Ġsons": 7245,
      "Ġdiamond": 7246,
      "OUT": 7247,
      "Ġsquee": 7248,
      "Ġextremely": 7249,
      "Ġcode": 7250,
      "Ġspider": 7251,
      "Ġincrease": 7252,
      "Ġelder": 7253,
      "Ġfuss": 7254,
      "Ġoldest": 7255,
      "Ġsending": 7256,
      "Ġswitch": 7257,
      "Ġphilos": 7258,
      "Ġsorrow": 7259,
      "Ġaston": 7260,
      "ĠLong": 7261,
      "Ġdiscover": 7262,
      "ĠSa": 7263,
      "Ġpoliceman": 7264,
      "rier": 7265,
      "ĠRad": 7266,
      "Ġelimin": 7267,
      "ĠTra": 7268,
      "ĠSecretary": 7269,
      "Ġtrousers": 7270,
      "Ġequip": 7271,
      "Ġshining": 7272,
      "Ġeventually": 7273,
      "ĠBus": 7274,
      "Ġwatches": 7275,
      "Ġkilling": 7276,
      "ervation": 7277,
      "Little": 7278,
      "Ġselling": 7279,
      "ĠCompany": 7280,
      "Ġslip": 7281,
      "Ġ1988": 7282,
      "Ġgovernor": 7283,
      "Ġaffair": 7284,
      "OH": 7285,
      "ĠTuesday": 7286,
      "Ġprince": 7287,
      "Ġcommander": 7288,
      "ĠSand": 7289,
      "Ġchips": 7290,
      "Ġquit": 7291,
      "ĠOut": 7292,
      "Ġroles": 7293,
      "irteen": 7294,
      "Ġkindly": 7295,
      "umbling": 7296,
      "ĠBook": 7297,
      "ĠBud": 7298,
      "Ġupside": 7299,
      "ĠKent": 7300,
      "Ġaddition": 7301,
      "aned": 7302,
      "Ġthirst": 7303,
      "fers": 7304,
      "ios": 7305,
      "quarters": 7306,
      "Ġtummy": 7307,
      "ĠPot": 7308,
      "Ġpron": 7309,
      "Should": 7310,
      "Cause": 7311,
      "ieve": 7312,
      "ĠFlorence": 7313,
      "Ġpardon": 7314,
      "ĠNorthern": 7315,
      "ĠSk": 7316,
      "Whatever": 7317,
      "Ġcontribut": 7318,
      "Ġ1991": 7319,
      "bin": 7320,
      "ĠJackson": 7321,
      "atre": 7322,
      "Ġstole": 7323,
      "198": 7324,
      "Ġoperation": 7325,
      "EV": 7326,
      "ĠSom": 7327,
      "Ġcircus": 7328,
      "press": 7329,
      "Ġfile": 7330,
      "ocks": 7331,
      "Ġmedal": 7332,
      "writer": 7333,
      "Ġconcentr": 7334,
      "keys": 7335,
      "Actually": 7336,
      "Ġhighly": 7337,
      "Ġbac": 7338,
      "enly": 7339,
      "ĠPac": 7340,
      "ĠJac": 7341,
      "Ġseek": 7342,
      "doesn": 7343,
      "Bar": 7344,
      "mi": 7345,
      "eau": 7346,
      "Ġfleet": 7347,
      "ĠRoad": 7348,
      "ĠDemocratic": 7349,
      "orange": 7350,
      "Today": 7351,
      "boat": 7352,
      "Ġsquir": 7353,
      "Ġinnocent": 7354,
      "Ġtin": 7355,
      "BE": 7356,
      "Ġpushing": 7357,
      "Ġjustice": 7358,
      "Someone": 7359,
      "ĠPers": 7360,
      "olk": 7361,
      "Ġreact": 7362,
      "Ġscary": 7363,
      "Ġagent": 7364,
      "invol": 7365,
      "Ġexplos": 7366,
      "Ġarranged": 7367,
      "Ġfreedom": 7368,
      "again": 7369,
      "Ġtracks": 7370,
      "Everyone": 7371,
      "Ġbanana": 7372,
      "Next": 7373,
      "Steven": 7374,
      "gt": 7375,
      "Ġcher": 7376,
      "Ġhadta": 7377,
      "ending": 7378,
      "Ġleague": 7379,
      "Bill": 7380,
      "contin": 7381,
      "och": 7382,
      "hess": 7383,
      "Ġcows": 7384,
      "ties": 7385,
      "Ġowe": 7386,
      "Ġappreciate": 7387,
      "Ġseats": 7388,
      "geon": 7389,
      "ĠThursday": 7390,
      "Ġkingdom": 7391,
      "ĠVirginia": 7392,
      "Love": 7393,
      "eable": 7394,
      "Ġharder": 7395,
      "cup": 7396,
      "ifts": 7397,
      "Ġaltogether": 7398,
      "KF": 7399,
      "Ġbelt": 7400,
      "ĠXX": 7401,
      "Gl": 7402,
      "Ġunfortun": 7403,
      "Ġincl": 7404,
      "alls": 7405,
      "ealous": 7406,
      "Ġspirits": 7407,
      "ĠAssociation": 7408,
      "mma": 7409,
      "Ġdelicious": 7410,
      "29": 7411,
      "ĠBet": 7412,
      "ookie": 7413,
      "ulance": 7414,
      "Ġshouting": 7415,
      "Back": 7416,
      "lle": 7417,
      "Ġdrugs": 7418,
      "cies": 7419,
      "omed": 7420,
      "ĠWITH": 7421,
      "aved": 7422,
      "Ġtunnel": 7423,
      "unting": 7424,
      "ĠPenn": 7425,
      "Ġinhabit": 7426,
      "ĠWednesday": 7427,
      "Ġtreatment": 7428,
      "Ġticket": 7429,
      "American": 7430,
      "Ġspark": 7431,
      "Ġspect": 7432,
      "ĠOver": 7433,
      "Ġmarked": 7434,
      "Ġshops": 7435,
      "Ġimprove": 7436,
      "Ġobey": 7437,
      "Ġaccompl": 7438,
      "Ġdistant": 7439,
      "Ġclimbing": 7440,
      "ĠFre": 7441,
      "Ġpassengers": 7442,
      "Ġcrimin": 7443,
      "45": 7444,
      "Ġworn": 7445,
      "Whoa": 7446,
      "Mad": 7447,
      "Ġcam": 7448,
      "ĠWales": 7449,
      "Ġnights": 7450,
      "Ġrice": 7451,
      "ĠUN": 7452,
      "ture": 7453,
      "ĠFour": 7454,
      "Ġvalley": 7455,
      "ĠSweden": 7456,
      "Ġtiss": 7457,
      "Ġchose": 7458,
      "Frank": 7459,
      "aghetti": 7460,
      "Ġmedia": 7461,
      "Ġdetails": 7462,
      "Ġburned": 7463,
      "Shall": 7464,
      "Ġbent": 7465,
      "ĠSpe": 7466,
      "35": 7467,
      "break": 7468,
      "Ġplates": 7469,
      "omer": 7470,
      "amily": 7471,
      "pir": 7472,
      "Ġsprang": 7473,
      "ĠTHIS": 7474,
      "Ġrelax": 7475,
      "involuntary": 7476,
      "ourse": 7477,
      "Ġbay": 7478,
      "Ġbush": 7479,
      "Ġ60": 7480,
      "throw": 7481,
      "ĠPatsy": 7482,
      "sho": 7483,
      "opl": 7484,
      "Four": 7485,
      "ĠFe": 7486,
      "Ġ1993": 7487,
      "ĠAustria": 7488,
      "Fl": 7489,
      "Ġdiss": 7490,
      "Ġnut": 7491,
      "ĠAwards": 7492,
      "Ġshed": 7493,
      "Ġnetwork": 7494,
      ".)": 7495,
      "LES": 7496,
      "Ġx": 7497,
      "Ġple": 7498,
      "Ġbuddy": 7499,
      "ĠSometimes": 7500,
      "ĠPerhaps": 7501,
      "Ġpride": 7502,
      "refer": 7503,
      "Ġbrand": 7504,
      "aki": 7505,
      "Ġflood": 7506,
      "pass": 7507,
      "Ġcheap": 7508,
      "Ġcoun": 7509,
      "Ġjelly": 7510,
      "Ġprecious": 7511,
      "Ġjournal": 7512,
      "cipal": 7513,
      "Ġsings": 7514,
      "Ġlat": 7515,
      "ĠINV": 7516,
      "ĠDou": 7517,
      "Ġapples": 7518,
      "Ġslave": 7519,
      "Ġpainted": 7520,
      "Ġcries": 7521,
      "goes": 7522,
      "Ġrequire": 7523,
      "Ġdocument": 7524,
      "Ġcott": 7525,
      "ĠTre": 7526,
      "ĠBell": 7527,
      "ji": 7528,
      "Ġbuttons": 7529,
      "Ġshapes": 7530,
      "ĠAlexander": 7531,
      "Ġcrocod": 7532,
      "ĠNether": 7533,
      "Ġneighb": 7534,
      "ĠDuke": 7535,
      "Ġgoods": 7536,
      "Ġhumans": 7537,
      "ĠPre": 7538,
      "Ġeighteen": 7539,
      "Ġpresented": 7540,
      "Ġjam": 7541,
      "Ġlamb": 7542,
      "Ġcells": 7543,
      "Ġgrey": 7544,
      "okes": 7545,
      "Looks": 7546,
      "rels": 7547,
      "Ġpenny": 7548,
      "Ġsolid": 7549,
      "Ġcents": 7550,
      "imp": 7551,
      "ĠGal": 7552,
      "Ġspots": 7553,
      "coming": 7554,
      "Ġislands": 7555,
      "Ġpsych": 7556,
      "Ġsequ": 7557,
      "Ġdriven": 7558,
      "olen": 7559,
      "Ġtoilet": 7560,
      "adium": 7561,
      "lfriend": 7562,
      "Ġdom": 7563,
      "ĠDun": 7564,
      "ĠOliver": 7565,
      "ĠPan": 7566,
      "ques": 7567,
      "Ġteachers": 7568,
      "ĠPrincess": 7569,
      "ĠDisney": 7570,
      "ĠMarie": 7571,
      "Ġhay": 7572,
      "ali": 7573,
      "Ġdaily": 7574,
      "Ġbuying": 7575,
      "ĠLau": 7576,
      "ĠEv": 7577,
      "Ġconfidence": 7578,
      "rolled": 7579,
      "Ġstern": 7580,
      "ĠPooh": 7581,
      "Ġleans": 7582,
      "Ġsteady": 7583,
      "Ġscratch": 7584,
      "Ġwing": 7585,
      "Ġfed": 7586,
      "Ġeastern": 7587,
      "ĠSH": 7588,
      "ĠPortug": 7589,
      "ĠDire": 7590,
      "sometimes": 7591,
      "ulate": 7592,
      "cles": 7593,
      "oto": 7594,
      "Ġpriest": 7595,
      "ĠIm": 7596,
      "amas": 7597,
      "ĠAld": 7598,
      "Ġkil": 7599,
      "Ġmyster": 7600,
      "ĠWas": 7601,
      "Ġplus": 7602,
      "OULD": 7603,
      "Ġcollection": 7604,
      "Ġunable": 7605,
      "Ġcompos": 7606,
      ",âĢĻ": 7607,
      "Ġequipment": 7608,
      "Ġsecure": 7609,
      "Ġrailway": 7610,
      "ĠAsia": 7611,
      "Ġclimate": 7612,
      "tes": 7613,
      "irmed": 7614,
      "Ġ1989": 7615,
      "ĠHea": 7616,
      "Ġincred": 7617,
      "ĠCa": 7618,
      "necess": 7619,
      "Ġsuppl": 7620,
      "Ġunusual": 7621,
      "music": 7622,
      "zo": 7623,
      "Ġpowers": 7624,
      "ĠYOUR": 7625,
      "Ġelev": 7626,
      "high": 7627,
      "ĠIII": 7628,
      "Ġswift": 7629,
      "Ġmood": 7630,
      "ĠFAT": 7631,
      "Ġpregn": 7632,
      "Ġcomplex": 7633,
      "ĠBecky": 7634,
      "Ġrat": 7635,
      "Ġowl": 7636,
      "ĠTri": 7637,
      "stick": 7638,
      "Ġtorn": 7639,
      "ito": 7640,
      "Ġmyth": 7641,
      "Ġstronger": 7642,
      "ompan": 7643,
      "37": 7644,
      "seven": 7645,
      "ĠBad": 7646,
      "Ġlegend": 7647,
      "Ġrecent": 7648,
      "Ġproducer": 7649,
      "Ġservant": 7650,
      "ĠLucy": 7651,
      "ridge": 7652,
      "ĠLisa": 7653,
      "SH": 7654,
      "corn": 7655,
      "ĠHung": 7656,
      "ĠWalter": 7657,
      "Ġcaut": 7658,
      "ĠLife": 7659,
      "ĠOk": 7660,
      "Ġhanded": 7661,
      "ĠAlf": 7662,
      "cest": 7663,
      "oard": 7664,
      "ĠHAVE": 7665,
      "erous": 7666,
      "Ġashamed": 7667,
      "ĠBir": 7668,
      "venue": 7669,
      "rich": 7670,
      "Ġsigh": 7671,
      "Ġcompleted": 7672,
      "ĠIran": 7673,
      "zy": 7674,
      "ĠRE": 7675,
      "ivered": 7676,
      "ĠMissouri": 7677,
      "ungle": 7678,
      "wers": 7679,
      "ĠOff": 7680,
      "ennie": 7681,
      "Ġmurm": 7682,
      "Ġcage": 7683,
      "Ġbold": 7684,
      "Ġarmed": 7685,
      "Ġproposed": 7686,
      "Ãº": 7687,
      "Ġsofa": 7688,
      "ĠMabel": 7689,
      "Ġsounded": 7690,
      "197": 7691,
      "pee": 7692,
      "Ġsubst": 7693,
      "Ġpotatoes": 7694,
      "ĠWilliams": 7695,
      "gly": 7696,
      "nina": 7697,
      "Ġunit": 7698,
      "atively": 7699,
      "ĠJenny": 7700,
      "ĠNetherlands": 7701,
      "Ġwitch": 7702,
      "ĠEach": 7703,
      "Ġprotection": 7704,
      "Ġthrill": 7705,
      "Ġchase": 7706,
      "Ġchuck": 7707,
      "Child": 7708,
      "ĠMen": 7709,
      "Ġbreathing": 7710,
      "Ġorganization": 7711,
      "gonna": 7712,
      "Ġability": 7713,
      "Ġpoorly": 7714,
      "Ġpermission": 7715,
      "Ġsixteen": 7716,
      "erable": 7717,
      "Ġcanoe": 7718,
      "Ġlately": 7719,
      "aisy": 7720,
      "ĠKitty": 7721,
      "ĠMadame": 7722,
      ".--": 7723,
      "ĠDonald": 7724,
      "Ġsucceeded": 7725,
      "ession": 7726,
      "Ġissues": 7727,
      "Ġstiff": 7728,
      "Ġfork": 7729,
      "Ġunknown": 7730,
      "Ġchemical": 7731,
      "ĠNancy": 7732,
      "Ġtank": 7733,
      "Ġcas": 7734,
      "elled": 7735,
      "Ġphotograph": 7736,
      "Ġseized": 7737,
      "didn": 7738,
      "Ġjealous": 7739,
      "Paul": 7740,
      "Ġexha": 7741,
      "Ġsuffering": 7742,
      "Ge": 7743,
      "Ġproof": 7744,
      "brush": 7745,
      "Ġdisappear": 7746,
      "Ġpillow": 7747,
      "Ġexercise": 7748,
      "bro": 7749,
      "Ġ1950": 7750,
      "Ġfailure": 7751,
      "una": 7752,
      "Ġscare": 7753,
      "ĠAndrew": 7754,
      "shakes": 7755,
      "inois": 7756,
      "Ġphysical": 7757,
      "Ġrestaurant": 7758,
      "Big": 7759,
      "ĠYear": 7760,
      "Watch": 7761,
      "excuse": 7762,
      "Ġgain": 7763,
      "icide": 7764,
      "Ġletting": 7765,
      "Ġlieutenant": 7766,
      "Move": 7767,
      "di": 7768,
      "iped": 7769,
      "ĠBelg": 7770,
      "Ġbackwards": 7771,
      "Ġbushes": 7772,
      "Ġvolume": 7773,
      "Ġaudience": 7774,
      "aman": 7775,
      "ĠBor": 7776,
      "ĠBat": 7777,
      "beep": 7778,
      "\").": 7779,
      "Dear": 7780,
      "Ġmole": 7781,
      "Ġlaughter": 7782,
      "Ġfrag": 7783,
      "Ġax": 7784,
      "ĠTake": 7785,
      "Ġresponsibility": 7786,
      "ĠLO": 7787,
      "annah": 7788,
      "Ġcheeks": 7789,
      "Ġdrinks": 7790,
      "Ġmama": 7791,
      "Geor": 7792,
      "Ġpushes": 7793,
      "ĠBow": 7794,
      "standing": 7795,
      "However": 7796,
      "Ġlic": 7797,
      "Ġoccupied": 7798,
      "ulated": 7799,
      "Ġadmitted": 7800,
      "ĠHad": 7801,
      "TA": 7802,
      "ĠKorea": 7803,
      "Ġbasically": 7804,
      "Ġexplan": 7805,
      "cia": 7806,
      "Ġtools": 7807,
      "rots": 7808,
      "Ġcaterpillar": 7809,
      "Ġfo": 7810,
      "ĠGran": 7811,
      "Ġcliff": 7812,
      "Ġadvert": 7813,
      "Ġcolon": 7814,
      "Ġbeds": 7815,
      "Ġexperiment": 7816,
      "ĠĠĠĠĠĠĠĠĠĠĠĠĠĠĠĠĠĠĠĠĠĠĠĠĠĠĠĠĠĠĠĠ": 7817,
      "whee": 7818,
      "Sit": 7819,
      "ju": 7820,
      "ĠCross": 7821,
      "dney": 7822,
      "Ġsunshine": 7823,
      "Ġstruggle": 7824,
      "erk": 7825,
      "Ġcough": 7826,
      "Ġspin": 7827,
      "Ġbriefly": 7828,
      "ĠOrd": 7829,
      "Ġcommittee": 7830,
      "Ġblowing": 7831,
      "Ġfollows": 7832,
      "ctic": 7833,
      "Ġdesert": 7834,
      "ĠWall": 7835,
      "Ġinse": 7836,
      "Ġgods": 7837,
      "ĠHim": 7838,
      "Ġsomethin": 7839,
      "Ġillustr": 7840,
      "Sha": 7841,
      "ĠUK": 7842,
      "Ġpurcha": 7843,
      "poor": 7844,
      "Ġhaha": 7845,
      "Ġanch": 7846,
      "Ġvocalises": 7847,
      "listen": 7848,
      "ĠCy": 7849,
      "Ġswall": 7850,
      "Ġhundreds": 7851,
      "Ġraining": 7852,
      "Ġreward": 7853,
      "Ġreturning": 7854,
      "wha": 7855,
      "ĠIllinois": 7856,
      "Ġpear": 7857,
      "Ġaltern": 7858,
      "Ġcarpet": 7859,
      "Ġfourteen": 7860,
      "Ġtub": 7861,
      "real": 7862,
      "Ġhers": 7863,
      "ĠMaria": 7864,
      "Ġcreatures": 7865,
      "App": 7866,
      "last": 7867,
      "ĠMu": 7868,
      "Ġrude": 7869,
      "Ġshaking": 7870,
      "Ġig": 7871,
      "Ġconsult": 7872,
      "crying": 7873,
      "ĠHan": 7874,
      "Ġadvanced": 7875,
      "Ġfortun": 7876,
      "iar": 7877,
      "yum": 7878,
      "aka": 7879,
      "atherine": 7880,
      "referring": 7881,
      "47": 7882,
      "sex": 7883,
      "ĠTw": 7884,
      "Ġinstance": 7885,
      "Ġemergency": 7886,
      "Ġtrucks": 7887,
      "Ġfever": 7888,
      "Ġ1984": 7889,
      "Ġexped": 7890,
      "ĠDepartment": 7891,
      "OB": 7892,
      "iches": 7893,
      "ĠBull": 7894,
      "ĠPhilip": 7895,
      "Ġcauses": 7896,
      "arrass": 7897,
      "Ġworkers": 7898,
      "Ġbree": 7899,
      "uman": 7900,
      "Ġdoctors": 7901,
      "Ġath": 7902,
      "inky": 7903,
      "pton": 7904,
      "AUN": 7905,
      "inder": 7906,
      "Ġquack": 7907,
      "Ġducks": 7908,
      "Ġcovers": 7909,
      "Ġroute": 7910,
      "Ġforb": 7911,
      "Ġconvin": 7912,
      "Ġslaves": 7913,
      "ĠArk": 7914,
      "Ġshelter": 7915,
      "aria": 7916,
      "lection": 7917,
      "ĠPier": 7918,
      "Ġbalance": 7919,
      "ĠFair": 7920,
      "Ġdragon": 7921,
      "GLO": 7922,
      "Ġchecked": 7923,
      "Ġturtle": 7924,
      "Ġuniform": 7925,
      "MEL": 7926,
      "Ġstove": 7927,
      "Ġrifle": 7928,
      "Ġsurrounded": 7929,
      "Poor": 7930,
      "Ġchallen": 7931,
      "anything": 7932,
      "ĠEst": 7933,
      "Ġtempt": 7934,
      "Ġaboard": 7935,
      "Ġfinan": 7936,
      "Ġstudies": 7937,
      "Ġflu": 7938,
      "Ġbegun": 7939,
      "ĠPop": 7940,
      "ĠCenter": 7941,
      "burgh": 7942,
      "etts": 7943,
      "ĠGree": 7944,
      "ighed": 7945,
      "ĠEastern": 7946,
      "Ġdisplay": 7947,
      "Ġsuffer": 7948,
      "iments": 7949,
      "Ġlif": 7950,
      "Ġinhabitants": 7951,
      "ĠKNOW": 7952,
      "ĠBra": 7953,
      "ĠLara": 7954,
      "ufact": 7955,
      "Ġsin": 7956,
      "ague": 7957,
      "Ġthunder": 7958,
      "ĠSure": 7959,
      "hemat": 7960,
      "Ġefforts": 7961,
      "Calais": 7962,
      "Ġperform": 7963,
      "ĠCarolina": 7964,
      "necessary": 7965,
      "Ġlanding": 7966,
      "Ġsettlement": 7967,
      "ĠChairman": 7968,
      "hens": 7969,
      "Ġroads": 7970,
      "ĠPhilipp": 7971,
      "Ġschol": 7972,
      "Ġbul": 7973,
      "ĠShar": 7974,
      "ĠRem": 7975,
      "ĠSid": 7976,
      "ERS": 7977,
      "Ġfalse": 7978,
      "AU": 7979,
      "aye": 7980,
      "ocr": 7981,
      "Ġenthus": 7982,
      "ĠPlease": 7983,
      "icycle": 7984,
      "Ġnoisy": 7985,
      "babble": 7986,
      "enes": 7987,
      "ĠUnder": 7988,
      "iot": 7989,
      "Ġjew": 7990,
      "KING": 7991,
      "fits": 7992,
      "ĠTime": 7993,
      "Ġcord": 7994,
      "Ġslipp": 7995,
      "Ġunion": 7996,
      "byebye": 7997,
      "bridge": 7998,
      "Ġplatform": 7999,
      "icopter": 8000,
      "ertainly": 8001,
      "IL": 8002,
      "ĠColumb": 8003,
      "Ġfurniture": 8004,
      "leave": 8005,
      "Ġ185": 8006,
      "Ġvir": 8007,
      "Ġwipe": 8008,
      "aling": 8009,
      "Ġstolen": 8010,
      "ĠNever": 8011,
      "osity": 8012,
      "uddle": 8013,
      "Ġproduct": 8014,
      "Ġembarrass": 8015,
      "ĠWinter": 8016,
      "Ġconclud": 8017,
      "Ġminor": 8018,
      "Ġnodded": 8019,
      "rr": 8020,
      "Ġsafely": 8021,
      "Ġcontains": 8022,
      "Ġboun": 8023,
      "Ġrevol": 8024,
      "Ġconfl": 8025,
      "Ġ1987": 8026,
      "aska": 8027,
      "ylvan": 8028,
      "Ġmultip": 8029,
      "Ġframe": 8030,
      "Ġvalu": 8031,
      "lotte": 8032,
      "Ġaband": 8033,
      "Ġpassion": 8034,
      "Ġpersons": 8035,
      "Ġnominated": 8036,
      "ĠFootball": 8037,
      "Ġ1972": 8038,
      "ĠBrook": 8039,
      "----\"": 8040,
      "FF": 8041,
      "Ġbond": 8042,
      "Ġdollar": 8043,
      "orious": 8044,
      "ĠOur": 8045,
      "Ġconduct": 8046,
      "hara": 8047,
      "ĠBible": 8048,
      "Ġexpecting": 8049,
      "Club": 8050,
      "ARD": 8051,
      "ĠMargaret": 8052,
      "also": 8053,
      "ĠCommittee": 8054,
      "Ġgirlfriend": 8055,
      "Ab": 8056,
      "ĠLater": 8057,
      "Ġbatt": 8058,
      "Ġattached": 8059,
      "Ġsteel": 8060,
      "Ġsymbol": 8061,
      "pected": 8062,
      "Ġ1986": 8063,
      "ees": 8064,
      "eating": 8065,
      "Ġwreck": 8066,
      "Ġbrick": 8067,
      "Ġasks": 8068,
      "Ġreality": 8069,
      "Ġutterances": 8070,
      "ĠSusan": 8071,
      "Ġmystery": 8072,
      "Ġdough": 8073,
      "ĠSouthern": 8074,
      "ĠHead": 8075,
      "ĠNothing": 8076,
      "Ġambulance": 8077,
      "ĠOxford": 8078,
      "ĠSecond": 8079,
      "anks": 8080,
      "Ġwarri": 8081,
      "Ġpossession": 8082,
      "36": 8083,
      "Last": 8084,
      "Ġgoodbye": 8085,
      "EST": 8086,
      "Ġsheet": 8087,
      "ĠFord": 8088,
      "Ġhealthy": 8089,
      "Ġblew": 8090,
      "pur": 8091,
      "Ġaffection": 8092,
      "achus": 8093,
      "Ġclothing": 8094,
      "Ġmerely": 8095,
      "Ġpersu": 8096,
      "Ġgoals": 8097,
      "Ġlocation": 8098,
      "Ġarchite": 8099,
      "cur": 8100,
      "Ġconsiderable": 8101,
      "Ġflour": 8102,
      "ĠSenate": 8103,
      "cake": 8104,
      "Ġtropical": 8105,
      "orted": 8106,
      "din": 8107,
      "pick": 8108,
      "Ġwishes": 8109,
      "venge": 8110,
      "ĠFaith": 8111,
      "bus": 8112,
      "ĠStud": 8113,
      "Ġquarters": 8114,
      "LYN": 8115,
      "Ġpowder": 8116,
      "reaches": 8117,
      "ĠMatt": 8118,
      "ĠAnnie": 8119,
      "Ġfacing": 8120,
      "ĠNOT": 8121,
      "Ġvisited": 8122,
      "iser": 8123,
      "ricane": 8124,
      "Ġaffairs": 8125,
      "Ġappeal": 8126,
      "ĠFirstname": 8127,
      "ĠTurk": 8128,
      "Ġheavily": 8129,
      "ĠSylvia": 8130,
      "erted": 8131,
      "Ġfits": 8132,
      "ript": 8133,
      "uls": 8134,
      "Ġstopping": 8135,
      "ĠMusic": 8136,
      "ĠSally": 8137,
      "Ġvain": 8138,
      "voice": 8139,
      "Ġobliged": 8140,
      "ĠTok": 8141,
      "Ġancest": 8142,
      "geous": 8143,
      "Ġengines": 8144,
      "Turn": 8145,
      "ĠLois": 8146,
      "Ġheaded": 8147,
      "Although": 8148,
      "Ġsauce": 8149,
      "Ġcitizens": 8150,
      "IG": 8151,
      "irk": 8152,
      "ugs": 8153,
      "Ġdrift": 8154,
      "Ġservants": 8155,
      "46": 8156,
      "ĶĢ": 8157,
      "leg": 8158,
      "lying": 8159,
      "Ġdescribe": 8160,
      "Ġinquired": 8161,
      "Five": 8162,
      "comm": 8163,
      "hants": 8164,
      "Ġneighborhood": 8165,
      "ĠAtlantic": 8166,
      "Pol": 8167,
      "ĠBoth": 8168,
      "Ġringing": 8169,
      "ĠGroup": 8170,
      "Ġconnection": 8171,
      "NO": 8172,
      "part": 8173,
      "ĠHoll": 8174,
      "Ġsales": 8175,
      "Try": 8176,
      "Ġnick": 8177,
      "ĠRail": 8178,
      "UM": 8179,
      "Ġmuseum": 8180,
      "Ġresour": 8181,
      "Ġcereal": 8182,
      "Ġdepends": 8183,
      "Ġromantic": 8184,
      "Ser": 8185,
      "wide": 8186,
      "Ġbeads": 8187,
      "ĠCAN": 8188,
      "ĠBomb": 8189,
      "ĠUk": 8190,
      "ĠBrother": 8191,
      "Ġgrateful": 8192,
      "lar": 8193,
      "heim": 8194,
      "ĠĠĠ": 8195,
      "Ġ35": 8196,
      "away": 8197,
      "Ġyummy": 8198,
      "ĠBang": 8199,
      "ĠUh": 8200,
      "Ġreturns": 8201,
      "Ġconfirmed": 8202,
      "aron": 8203,
      "Tony": 8204,
      "lots": 8205,
      "Ġign": 8206,
      "Ġcalcul": 8207,
      "Yep": 8208,
      "Ġ1981": 8209,
      "ĠGeorgia": 8210,
      "pol": 8211,
      "Ġconstruction": 8212,
      "Ġooh": 8213,
      "abs": 8214,
      "Ġvast": 8215,
      "foot": 8216,
      "sound": 8217,
      "ieur": 8218,
      "ĠDi": 8219,
      "emp": 8220,
      "Ġdistinct": 8221,
      "inging": 8222,
      "nis": 8223,
      "Ġaye": 8224,
      "Ġsailor": 8225,
      "Ġpengu": 8226,
      "Ġreports": 8227,
      "ints": 8228,
      "ylvania": 8229,
      "unched": 8230,
      "Ġdrum": 8231,
      "lessly": 8232,
      "____": 8233,
      "Ġacted": 8234,
      "Ġpressed": 8235,
      "MAD": 8236,
      "Ġunits": 8237,
      "ĠJohnson": 8238,
      "ĠConst": 8239,
      "38": 8240,
      "lace": 8241,
      "Ġhut": 8242,
      "Ġquant": 8243,
      "Anything": 8244,
      "Ġdistributed": 8245,
      "Jo": 8246,
      "song": 8247,
      "Ġtray": 8248,
      "Ġlets": 8249,
      "rah": 8250,
      "uz": 8251,
      "ĠBal": 8252,
      "uddenly": 8253,
      "Ġtraditional": 8254,
      "irts": 8255,
      "ĠPict": 8256,
      "eling": 8257,
      "Ġdreadful": 8258,
      "Ġwhistle": 8259,
      "Under": 8260,
      "Ġelement": 8261,
      "Ġapproached": 8262,
      "ĠCOVID": 8263,
      "achusetts": 8264,
      "Ġangel": 8265,
      "aks": 8266,
      "Ġsexual": 8267,
      "nor": 8268,
      "ĠAli": 8269,
      "ĠJess": 8270,
      "Ġfactory": 8271,
      "Ġcupboard": 8272,
      "Ġrolls": 8273,
      "Â°": 8274,
      "ĠHome": 8275,
      "Ġanger": 8276,
      "ESS": 8277,
      "ĠGrace": 8278,
      "top": 8279,
      "arn": 8280,
      "Ġsleepy": 8281,
      "Ġrivers": 8282,
      "Ġconscious": 8283,
      "Ġjoint": 8284,
      "whose": 8285,
      "Ã¡n": 8286,
      "Jesus": 8287,
      "Six": 8288,
      "pan": 8289,
      "ĠSant": 8290,
      "Ġsche": 8291,
      "ĠYet": 8292,
      "Ġbenefit": 8293,
      "Ġcosts": 8294,
      "Ġsupported": 8295,
      "Ġbillion": 8296,
      "sur": 8297,
      "ications": 8298,
      "Ġcottage": 8299,
      "Ġlou": 8300,
      "Ġbug": 8301,
      "ĠDave": 8302,
      "unte": 8303,
      "agger": 8304,
      "Ġcolored": 8305,
      "Ġbasketball": 8306,
      "Ok": 8307,
      "Ġgiraffe": 8308,
      "Ġdisappointed": 8309,
      "48": 8310,
      "Ġhockey": 8311,
      "Career": 8312,
      "Ġchess": 8313,
      "Ġcontro": 8314,
      "ĠMich": 8315,
      "mony": 8316,
      "nold": 8317,
      "Ġcakes": 8318,
      "Ġratt": 8319,
      "Ġsmiles": 8320,
      "rella": 8321,
      "Ġgri": 8322,
      "Ġconcer": 8323,
      "Ġactions": 8324,
      "Ġglanced": 8325,
      "Ġtremb": 8326,
      "Eh": 8327,
      "close": 8328,
      "ĠIslam": 8329,
      "cos": 8330,
      "teacher": 8331,
      "Ġearned": 8332,
      "Ġconfused": 8333,
      "IST": 8334,
      "Ġmajority": 8335,
      "ĠBarbara": 8336,
      "ĠJr": 8337,
      "ĠAsian": 8338,
      "ĠPacific": 8339,
      "Ġopt": 8340,
      "Ġdoo": 8341,
      "Ġlamp": 8342,
      "Ġstup": 8343,
      "Ġinjured": 8344,
      "Nic": 8345,
      "Ġscored": 8346,
      "Ġamongst": 8347,
      "ĠValley": 8348,
      "PS": 8349,
      "Ġ1976": 8350,
      "ĠGi": 8351,
      "Ġpartly": 8352,
      "Ġ1979": 8353,
      "Ġcontainer": 8354,
      "aire": 8355,
      "Ġdyn": 8356,
      "Ġunf": 8357,
      "Ġprompt": 8358,
      "ĠDaniel": 8359,
      "ELL": 8360,
      "Phil": 8361,
      "Ġsne": 8362,
      "Ġarticle": 8363,
      "ĠJewish": 8364,
      "39": 8365,
      "move": 8366,
      "still": 8367,
      "ĠAD": 8368,
      "ĠAnother": 8369,
      "Ġimportance": 8370,
      "ĠLouise": 8371,
      "Ġprinci": 8372,
      "ĠGre": 8373,
      "Ġtribe": 8374,
      "osphere": 8375,
      "Ġbroadcast": 8376,
      "ĠMickey": 8377,
      "Jul": 8378,
      "According": 8379,
      "Ġmanufact": 8380,
      "Ġprincipal": 8381,
      "Ġtechnology": 8382,
      "Ġtrap": 8383,
      "sque": 8384,
      "love": 8385,
      "Ġinches": 8386,
      "ĠTell": 8387,
      "ĠShow": 8388,
      "Ġremove": 8389,
      "Ġmarch": 8390,
      "quick": 8391,
      "Ġbullet": 8392,
      "Aren": 8393,
      "La": 8394,
      "gone": 8395,
      "ĠPas": 8396,
      "elf": 8397,
      "ĠLight": 8398,
      "ĠMatthew": 8399,
      "Col": 8400,
      "Mag": 8401,
      "ington": 8402,
      "Ġstable": 8403,
      "ranscri": 8404,
      "ICE": 8405,
      "Ġpitched": 8406,
      "Sec": 8407,
      "mag": 8408,
      "ĠAnton": 8409,
      "keeper": 8410,
      "iens": 8411,
      "Ġclient": 8412,
      "ubs": 8413,
      "Ġloudly": 8414,
      "anch": 8415,
      "agement": 8416,
      "rane": 8417,
      "aughters": 8418,
      "Ġcleaning": 8419,
      "Ġsuspic": 8420,
      "Ġkiller": 8421,
      "Ġdegrees": 8422,
      "rad": 8423,
      "Ġgard": 8424,
      "Ġrev": 8425,
      "Ġumb": 8426,
      "eme": 8427,
      "inkle": 8428,
      "Ġunderstanding": 8429,
      "ĠRobin": 8430,
      "Ġsoil": 8431,
      "Ġscale": 8432,
      "Both": 8433,
      "Ġseas": 8434,
      "gets": 8435,
      "Ġattended": 8436,
      "ĠStill": 8437,
      "imme": 8438,
      "ĠNan": 8439,
      "Ġ1985": 8440,
      "Ġpup": 8441,
      "Ġjar": 8442,
      "Ġhid": 8443,
      "Ġreaching": 8444,
      "Ġneighbour": 8445,
      "Welcome": 8446,
      "sec": 8447,
      "ibr": 8448,
      "pop": 8449,
      "eline": 8450,
      "white": 8451,
      "Sarah": 8452,
      "omi": 8453,
      "ĠLI": 8454,
      "Ġcommonly": 8455,
      "ĠHolly": 8456,
      "ntil": 8457,
      "Ġimage": 8458,
      "Ġsenior": 8459,
      "ĠMassachusetts": 8460,
      "bal": 8461,
      "anes": 8462,
      "ĠDet": 8463,
      "ĠConf": 8464,
      "iro": 8465,
      "agged": 8466,
      "Ġclasses": 8467,
      "Bring": 8468,
      "Old": 8469,
      "estic": 8470,
      "Ġcock": 8471,
      "Ġshark": 8472,
      "ĠAB": 8473,
      "Ġseasons": 8474,
      "Ġapproaching": 8475,
      "iri": 8476,
      "Ġretire": 8477,
      "ĠEddie": 8478,
      "Ġages": 8479,
      "ologist": 8480,
      "Ġdefeated": 8481,
      "Ġvehicle": 8482,
      "ĠDivision": 8483,
      "uals": 8484,
      "uties": 8485,
      "ova": 8486,
      "Ġboom": 8487,
      "Ġdistingu": 8488,
      "Ġdining": 8489,
      "ĠAsh": 8490,
      "Ġtrained": 8491,
      "War": 8492,
      "Ġward": 8493,
      "Ġswell": 8494,
      "ĠShi": 8495,
      "Their": 8496,
      "ĠJoy": 8497,
      "ĠLew": 8498,
      "Ġmanagement": 8499,
      "Ġgrapes": 8500,
      "ilder": 8501,
      "ev": 8502,
      "Ġmurd": 8503,
      "Too": 8504,
      "Ġnoted": 8505,
      "Ġconcl": 8506,
      "Ġstretched": 8507,
      "Ġpirate": 8508,
      "mate": 8509,
      "zing": 8510,
      "iders": 8511,
      "ceived": 8512,
      "Ġcompared": 8513,
      "Ġcapture": 8514,
      "Aha": 8515,
      "Amy": 8516,
      "Life": 8517,
      "mil": 8518,
      "icky": 8519,
      "Ġsched": 8520,
      "ĠDa": 8521,
      "ĠRoy": 8522,
      "asses": 8523,
      "Ġanswers": 8524,
      "Again": 8525,
      "yed": 8526,
      "ths": 8527,
      "Ġpole": 8528,
      "Ġcontest": 8529,
      "ĠDev": 8530,
      "Ġnaturally": 8531,
      "ĠWindows": 8532,
      "Jwww": 8533,
      "bag": 8534,
      "ĠAccording": 8535,
      "oline": 8536,
      "Ġmistress": 8537,
      "Ġstores": 8538,
      "Ġseparated": 8539,
      "ĠInstitute": 8540,
      "upon": 8541,
      "Ġarrival": 8542,
      "Ġpretending": 8543,
      "Ġbiscuits": 8544,
      "Ġdesperate": 8545,
      "Ġincome": 8546,
      "ppers": 8547,
      "apers": 8548,
      "Hon": 8549,
      "allas": 8550,
      "Ġaircraft": 8551,
      "Ġauthorities": 8552,
      "Ġterritory": 8553,
      "ĠMiddle": 8554,
      "Ġdemonstr": 8555,
      "Ġugly": 8556,
      "ĠArmen": 8557,
      "Ġsalad": 8558,
      "Ġsnap": 8559,
      "Ġnearest": 8560,
      "Ġtissue": 8561,
      "bir": 8562,
      "ĠSur": 8563,
      "Ġstroke": 8564,
      "Ellie": 8565,
      "Ġeliminated": 8566,
      "girl": 8567,
      "Ġwinner": 8568,
      "Ġded": 8569,
      "Ġ1983": 8570,
      "Ġsought": 8571,
      "Ġuniverse": 8572,
      "Ġreferred": 8573,
      "Ġstations": 8574,
      "ĠRachel": 8575,
      "OS": 8576,
      "mind": 8577,
      "Ġbetray": 8578,
      "Ġretreat": 8579,
      "ĠMartine": 8580,
      "gment": 8581,
      "ender": 8582,
      "Ġaccompan": 8583,
      "Ġprayer": 8584,
      "thanks": 8585,
      "ANN": 8586,
      "ropol": 8587,
      "Ġremaining": 8588,
      "Com": 8589,
      "kind": 8590,
      "isse": 8591,
      "zes": 8592,
      "Ġbees": 8593,
      "ĠCra": 8594,
      "Ġsale": 8595,
      "Ġshy": 8596,
      "even": 8597,
      "Ġdull": 8598,
      "Ġitems": 8599,
      "Ġbuff": 8600,
      "Ġheadquarters": 8601,
      "Ġinstit": 8602,
      "Ġsatisfaction": 8603,
      "ĠLincol": 8604,
      "90": 8605,
      "giving": 8606,
      "Ġstamp": 8607,
      "Ġspy": 8608,
      "never": 8609,
      "Ġestate": 8610,
      "Ġmidnight": 8611,
      "Pres": 8612,
      "sa": 8613,
      "anas": 8614,
      "Ġhipp": 8615,
      "Ġ80": 8616,
      "RIC": 8617,
      "--------------------------------": 8618,
      "Ġrustling": 8619,
      "itched": 8620,
      "Ġkeen": 8621,
      "Ġboyfriend": 8622,
      "Ġcuts": 8623,
      "Ġserving": 8624,
      "Ġnicely": 8625,
      "Ġtradition": 8626,
      "Des": 8627,
      "Ġrepresented": 8628,
      "Ġdanc": 8629,
      "Ġthirteen": 8630,
      "olt": 8631,
      "Ġtidy": 8632,
      "master": 8633,
      "ĠBall": 8634,
      "ĠJohnny": 8635,
      "ĠIslands": 8636,
      "Ġawarded": 8637,
      "Ġpeanut": 8638,
      "TV": 8639,
      "ĠALL": 8640,
      "works": 8641,
      "NIC": 8642,
      "inea": 8643,
      "Ġvoy": 8644,
      "Ġminds": 8645,
      "pron": 8646,
      "Ġdeeply": 8647,
      "Ġdiag": 8648,
      "screams": 8649,
      "ĠHor": 8650,
      "Ġcommitted": 8651,
      "ĠBerlin": 8652,
      "Ġassistant": 8653,
      "Ġbeep": 8654,
      "Ġvig": 8655,
      "Ġwrit": 8656,
      "ĠJersey": 8657,
      "wind": 8658,
      "ĠKansas": 8659,
      "Ġvariety": 8660,
      "Ġadventures": 8661,
      "Har": 8662,
      "unks": 8663,
      "Ġillness": 8664,
      "ĠMister": 8665,
      "ĠMuseum": 8666,
      "Ġwanting": 8667,
      "sylvania": 8668,
      "Ġwicked": 8669,
      "Ġgosh": 8670,
      "Ġfuneral": 8671,
      "Ġalongside": 8672,
      "ĠFrancisco": 8673,
      "Ġexact": 8674,
      "Ġconfident": 8675,
      "careful": 8676,
      "nda": 8677,
      "Ġplot": 8678,
      "ĠOw": 8679,
      "--_": 8680,
      "Probably": 8681,
      "ifer": 8682,
      "ĠTeam": 8683,
      "Ġbord": 8684,
      "ĠDomin": 8685,
      "black": 8686,
      "Mat": 8687,
      "Ġhits": 8688,
      "ĠEllen": 8689,
      "Ġbubbles": 8690,
      "mann": 8691,
      "Ġeconomic": 8692,
      "gro": 8693,
      "Ġcattle": 8694,
      "Pre": 8695,
      "ĠMA": 8696,
      "ĠOs": 8697,
      "Ġhorror": 8698,
      "Ġawait": 8699,
      "Ġdressing": 8700,
      "ĠSydney": 8701,
      "iner": 8702,
      "Ġrevolution": 8703,
      "hio": 8704,
      "Ġcompar": 8705,
      "Ġtroubles": 8706,
      "esc": 8707,
      "Ġprogramme": 8708,
      "ĠCaroline": 8709,
      "Ġloyal": 8710,
      "Ġspaghetti": 8711,
      "Ġimpl": 8712,
      "ĠInter": 8713,
      "find": 8714,
      "Ġtempor": 8715,
      "ĠWilson": 8716,
      "ĠService": 8717,
      "pent": 8718,
      "ports": 8719,
      "somebody": 8720,
      "Ġvessels": 8721,
      "ĠFer": 8722,
      "ĠEmperor": 8723,
      "asion": 8724,
      "Ġprec": 8725,
      "might": 8726,
      "adu": 8727,
      "Ġteen": 8728,
      "onsieur": 8729,
      "ĠOnce": 8730,
      "ĠGolden": 8731,
      "Ġresponded": 8732,
      "rical": 8733,
      "verse": 8734,
      "Ġ1982": 8735,
      "Ġarrive": 8736,
      "Ġwhisper": 8737,
      "Ġinterrupted": 8738,
      "uy": 8739,
      "Ġelectron": 8740,
      "Ġexchange": 8741,
      "Open": 8742,
      "TO": 8743,
      "ĠPrize": 8744,
      "Ġsock": 8745,
      "Ġpolitics": 8746,
      "ĠSay": 8747,
      "Ġatm": 8748,
      "ĠOcean": 8749,
      "Ġmurdered": 8750,
      "Ġviolence": 8751,
      "Ġsolemn": 8752,
      "Alex": 8753,
      "Ġ90": 8754,
      "Ġcrocodile": 8755,
      "imum": 8756,
      "Ġrum": 8757,
      "Ġvacation": 8758,
      "Mary": 8759,
      "Ġ/": 8760,
      "Ġseeds": 8761,
      "Ġfigured": 8762,
      "alie": 8763,
      "Ġwebs": 8764,
      "ophy": 8765,
      "Ġofficially": 8766,
      "cus": 8767,
      "hard": 8768,
      "Ġdea": 8769,
      "Ġbelonged": 8770,
      "Ġbench": 8771,
      "aah": 8772,
      "Ġacid": 8773,
      "Ġachieve": 8774,
      "Ġthrone": 8775,
      "ĠDeb": 8776,
      "ongratulations": 8777,
      "ĠDON": 8778,
      "ĠNord": 8779,
      "Ġbattery": 8780,
      "Ġanal": 8781,
      "Ġcharming": 8782,
      "Ġhal": 8783,
      "ilst": 8784,
      "ĠArch": 8785,
      "Ġvolunte": 8786,
      "Ġvirt": 8787,
      "Ġhousehold": 8788,
      "Ġod": 8789,
      "acious": 8790,
      "Uncle": 8791,
      "ĠRepublican": 8792,
      "ĠLiber": 8793,
      "ĠKate": 8794,
      "rett": 8795,
      "Ġvaluable": 8796,
      "ĠMid": 8797,
      "Ġbuzz": 8798,
      "Ġpaused": 8799,
      "Ġfeeding": 8800,
      "'...": 8801,
      "coh": 8802,
      "aylor": 8803,
      "ĠCont": 8804,
      "ĠRyan": 8805,
      "ĠViet": 8806,
      "rogen": 8807,
      "Ġsurvive": 8808,
      "abbits": 8809,
      "count": 8810,
      "Ġfare": 8811,
      "Ġfasc": 8812,
      "Ġreaction": 8813,
      "ĠAri": 8814,
      "ĠJason": 8815,
      "Ġsquad": 8816,
      "Ġfoolish": 8817,
      "Ġgle": 8818,
      "ĠSon": 8819,
      "rock": 8820,
      "Ġâľ": 8821,
      "Ġceremony": 8822,
      "po": 8823,
      "Ġbore": 8824,
      "Ġblows": 8825,
      "Ġcapable": 8826,
      "âĶĢ": 8827,
      "Ġfled": 8828,
      "imately": 8829,
      "Ġ1974": 8830,
      "Ġthoroughly": 8831,
      "ĠPennsylvania": 8832,
      "Ġfinancial": 8833,
      "ĠMouse": 8834,
      "Ġerr": 8835,
      "named": 8836,
      "Ġloving": 8837,
      "Ġashore": 8838,
      "Ġprospect": 8839,
      "Ġdrawer": 8840,
      "Ġstrawberry": 8841,
      "Ġâľ¿": 8842,
      "case": 8843,
      "Ã´": 8844,
      "Ġbasic": 8845,
      "Ġprepare": 8846,
      "ĠMuslim": 8847,
      "Ġchampion": 8848,
      "Ġscheme": 8849,
      "Mart": 8850,
      "ĠBeth": 8851,
      "opy": 8852,
      "Ġdiscovery": 8853,
      "Somebody": 8854,
      "ĠOlympic": 8855,
      "ĠIllustr": 8856,
      "rily": 8857,
      "Ġrac": 8858,
      "ĠDer": 8859,
      "ainted": 8860,
      "Ġpecul": 8861,
      "Ġfeast": 8862,
      "des": 8863,
      "Ġstated": 8864,
      "ĠTele": 8865,
      "ĠHard": 8866,
      "ebra": 8867,
      "Ġsticker": 8868,
      "ĠAustrian": 8869,
      "Ġunex": 8870,
      "ĠWait": 8871,
      "intend": 8872,
      "49": 8873,
      "ĠSP": 8874,
      "ĠAlthough": 8875,
      "ĠSpani": 8876,
      "Ġlabor": 8877,
      "80": 8878,
      "Lu": 8879,
      "inking": 8880,
      "Ġartists": 8881,
      "ĠDanny": 8882,
      "Ġdefeat": 8883,
      "Ġbudget": 8884,
      "TS": 8885,
      "TLE": 8886,
      "ĠLast": 8887,
      "Ġchamber": 8888,
      "Ġstrict": 8889,
      "196": 8890,
      "Exactly": 8891,
      "ĠMexican": 8892,
      "ĠHay": 8893,
      "olph": 8894,
      "ĠNaz": 8895,
      "ĠOUT": 8896,
      "Ġdirt": 8897,
      "Ġvisitors": 8898,
      "Ġconcert": 8899,
      "iy": 8900,
      "pool": 8901,
      "thony": 8902,
      "Ġunhappy": 8903,
      "Ġskill": 8904,
      "orial": 8905,
      "leton": 8906,
      "Ġtournament": 8907,
      "Bobby": 8908,
      "Ġknot": 8909,
      "Ġsaving": 8910,
      "ĠNap": 8911,
      "Ġgrat": 8912,
      "Ġcricket": 8913,
      "ĠMolly": 8914,
      "people": 8915,
      "ordan": 8916,
      "Ġfireman": 8917,
      "Ġagreement": 8918,
      "ĠBattle": 8919,
      "Ġportion": 8920,
      "ĠBudd": 8921,
      "ĠBelle": 8922,
      "Ġalpha": 8923,
      "Ġnumerous": 8924,
      "Ġ1978": 8925,
      "Ġexplanation": 8926,
      "ĠEX": 8927,
      "Ġpartners": 8928,
      "Ġnearby": 8929,
      "Ġtickets": 8930,
      "next": 8931,
      "Ġ1968": 8932,
      "Ġstarring": 8933,
      "Ġdelightful": 8934,
      "Ġthirsty": 8935,
      "attered": 8936,
      "urches": 8937,
      "INE": 8938,
      "agle": 8939,
      "Ġinsurance": 8940,
      "Cle": 8941,
      "Ġcommission": 8942,
      "duc": 8943,
      "Ġcleared": 8944,
      "Ġbasis": 8945,
      "ĠMichigan": 8946,
      "ĠRen": 8947,
      "Ġresident": 8948,
      "Ġsailed": 8949,
      "Ġtickle": 8950,
      "Ġbid": 8951,
      "utiful": 8952,
      "irs": 8953,
      "ĠAS": 8954,
      "ĠArgent": 8955,
      "Ġdrag": 8956,
      "rifice": 8957,
      "Ġboot": 8958,
      "ĠAlbert": 8959,
      "Ġextent": 8960,
      "Ġdaughters": 8961,
      "Ġanxiety": 8962,
      "Ġconflict": 8963,
      "rob": 8964,
      "olves": 8965,
      "ĠJam": 8966,
      "ĠList": 8967,
      "grim": 8968,
      "Ġcoloring": 8969,
      "Ġfocus": 8970,
      "Ġreign": 8971,
      "ĠWould": 8972,
      "idays": 8973,
      "Ġmathemat": 8974,
      "Ġstead": 8975,
      "Ġclosing": 8976,
      "Ġintense": 8977,
      "Ġ1977": 8978,
      "ĠRepresent": 8979,
      "ario": 8980,
      "Ġna": 8981,
      "ĠHoly": 8982,
      "Ġintention": 8983,
      "Ġcommercial": 8984,
      "Ġhired": 8985,
      "Ġmeters": 8986,
      "enneth": 8987,
      "Ġlemon": 8988,
      "Ġnatives": 8989,
      "Ġchances": 8990,
      "Ġeconomy": 8991,
      "tick": 8992,
      "Ġdisci": 8993,
      "Ġsailing": 8994,
      "Ġpunishment": 8995,
      "Ġtremend": 8996,
      "Were": 8997,
      "Ġcounting": 8998,
      "Ġdetective": 8999,
      "Ġfeathers": 9000,
      "ements": 9001,
      "Ġigno": 9002,
      "Jean": 9003,
      "Person": 9004,
      "Time": 9005,
      "IND": 9006,
      "Ġchart": 9007,
      "Ġlimited": 9008,
      "Ġ1975": 9009,
      "ĠGermans": 9010,
      "Ġ1969": 9011,
      "Ġgrowth": 9012,
      "Comm": 9013,
      "ĠSong": 9014,
      "Ġprimary": 9015,
      "Ten": 9016,
      "Ġtune": 9017,
      "ĠSC": 9018,
      "elia": 9019,
      "ĠGreg": 9020,
      "Ġpolite": 9021,
      "Ġ45": 9022,
      "orks": 9023,
      "Ġthrust": 9024,
      "Ġtouching": 9025,
      "Ġargument": 9026,
      "Ġchimney": 9027,
      "Ġsixth": 9028,
      "ĠHas": 9029,
      "ĠClark": 9030,
      "Ġlung": 9031,
      "pless": 9032,
      "Ġ36": 9033,
      "Ġscientific": 9034,
      "Ġpregnant": 9035,
      "âĨ": 9036,
      "Ġcarbon": 9037,
      "Ġcharged": 9038,
      "Ġrubber": 9039,
      "Want": 9040,
      "Eng": 9041,
      "icip": 9042,
      "ubby": 9043,
      "ĠVery": 9044,
      "Ġtemple": 9045,
      "WHAT": 9046,
      "rings": 9047,
      "places": 9048,
      "Ġstudying": 9049,
      "Ġlands": 9050,
      "ĠAz": 9051,
      "ĠAwww": 9052,
      "Ġsurgery": 9053,
      "HL": 9054,
      "utions": 9055,
      "Ġswept": 9056,
      "onge": 9057,
      "ĠGro": 9058,
      "resp": 9059,
      "Ġshortly": 9060,
      "Ġ1973": 9061,
      "Ġopera": 9062,
      "Cor": 9063,
      "Ġpist": 9064,
      "Ġspill": 9065,
      "Hen": 9066,
      "Ġgal": 9067,
      "ĠCub": 9068,
      "ĠNet": 9069,
      "Ġscript": 9070,
      "Ġslee": 9071,
      "eness": 9072,
      "ĠAle": 9073,
      "Ġcomposed": 9074,
      "Ġstaring": 9075,
      "500": 9076,
      "Ġconference": 9077,
      "Ġrecovered": 9078,
      "Ġproducts": 9079,
      "Ġconvinced": 9080,
      "Ġlob": 9081,
      "ĠBrazilian": 9082,
      "Ġrecommend": 9083,
      "bi": 9084,
      "Ġlover": 9085,
      "owa": 9086,
      "Ġgeneration": 9087,
      "Ġven": 9088,
      "33": 9089,
      "ĠWolf": 9090,
      "Ġdraws": 9091,
      "Ġrefers": 9092,
      "peech": 9093,
      "Rob": 9094,
      "mpt": 9095,
      "Ġnuts": 9096,
      "pson": 9097,
      "Ġelements": 9098,
      "scar": 9099,
      "Ġhopes": 9100,
      "Ġbiscuit": 9101,
      "ĠGray": 9102,
      "angers": 9103,
      "Ġfriendship": 9104,
      "Ġattacks": 9105,
      "Ġscientists": 9106,
      "Ġtide": 9107,
      "ĠDavis": 9108,
      "oby": 9109,
      "Ġrocket": 9110,
      "Ġloft": 9111,
      "Ġstupid": 9112,
      "70": 9113,
      "aste": 9114,
      "risc": 9115,
      "ĠFC": 9116,
      "hings": 9117,
      "Ġcloses": 9118,
      "Ġenjoying": 9119,
      "Ġvision": 9120,
      "Ġchew": 9121,
      "Dan": 9122,
      "Ġhelicopter": 9123,
      "ulture": 9124,
      "Ġmercy": 9125,
      "Ġlevels": 9126,
      "Blue": 9127,
      "Ġeth": 9128,
      "Ġspending": 9129,
      "Ġtack": 9130,
      "vell": 9131,
      "Ġpacked": 9132,
      "Ġmunicipal": 9133,
      "James": 9134,
      "Ġbeating": 9135,
      "ĠAbe": 9136,
      "Ġtouches": 9137,
      "UD": 9138,
      "Ġnonsense": 9139,
      "ĠEle": 9140,
      "Ġnowhere": 9141,
      "Ġbom": 9142,
      "Ġregions": 9143,
      "ĠSociety": 9144,
      "Ġinsisted": 9145,
      "Ġbanks": 9146,
      "Ġadopted": 9147,
      "Bra": 9148,
      "Ġcooked": 9149,
      "Ġlt": 9150,
      "Ġere": 9151,
      "ĠMoon": 9152,
      "arson": 9153,
      "ĠLeon": 9154,
      "Ġlaunched": 9155,
      "Ġpattern": 9156,
      "NG": 9157,
      "ĠEs": 9158,
      "Ġregarded": 9159,
      "issors": 9160,
      "Ġbearing": 9161,
      "ĠMaybe": 9162,
      "Ġprograms": 9163,
      "ĠAuntie": 9164,
      "ĠScottish": 9165,
      "ĠLoire": 9166,
      "Pat": 9167,
      "ĠSocial": 9168,
      "itter": 9169,
      "Ġimit": 9170,
      "Ġcigaret": 9171,
      "Bel": 9172,
      "EP": 9173,
      "pre": 9174,
      "Ġwhilst": 9175,
      "angar": 9176,
      "Ġ70": 9177,
      "Ġsticking": 9178,
      "ĠGET": 9179,
      "Ġsneak": 9180,
      "Ġpatients": 9181,
      "ĠSar": 9182,
      "ruct": 9183,
      "Ġ1971": 9184,
      "toy": 9185,
      "Ġcheerful": 9186,
      "Ġinstrument": 9187,
      "Ġimpress": 9188,
      "Ġruled": 9189,
      "Better": 9190,
      "tape": 9191,
      "Ġsteep": 9192,
      "Ġ1930": 9193,
      "Ġcotton": 9194,
      "Bi": 9195,
      "Fin": 9196,
      "lings": 9197,
      "ĠMod": 9198,
      "Ġkindness": 9199,
      "Ġactivities": 9200,
      "Ġwherever": 9201,
      "Ġlaunch": 9202,
      "Play": 9203,
      "Ġproceeded": 9204,
      "continues": 9205,
      "gues": 9206,
      "loo": 9207,
      "Ġfeared": 9208,
      "ĠMoo": 9209,
      "Ġpoll": 9210,
      "ennis": 9211,
      "Ġridic": 9212,
      "ĠOrder": 9213,
      "Ġdign": 9214,
      "inners": 9215,
      "ĠChristopher": 9216,
      "Ġsecretary": 9217,
      "great": 9218,
      "ĠNi": 9219,
      "ĠProt": 9220,
      "sname": 9221,
      "Ġshots": 9222,
      "Ġflow": 9223,
      "ĠHonor": 9224,
      "ĠGall": 9225,
      "Ġinnit": 9226,
      "Ġnuclear": 9227,
      "Ġumbrella": 9228,
      "GAI": 9229,
      "made": 9230,
      "uing": 9231,
      "ĠUP": 9232,
      "Ġelephants": 9233,
      "run": 9234,
      "ygen": 9235,
      "Ġtool": 9236,
      "theless": 9237,
      "urious": 9238,
      "ras": 9239,
      "ĠLot": 9240,
      "Ġassured": 9241,
      "Ġinstantly": 9242,
      "Ġexpedition": 9243,
      "Ġfuel": 9244,
      "Ġrepeat": 9245,
      "Ġmend": 9246,
      "Ġ(,": 9247,
      "Ġconstant": 9248,
      "ĠWHAT": 9249,
      "Down": 9250,
      "Ã§": 9251,
      "ccer": 9252,
      "Ġbreathe": 9253,
      "Ġpropos": 9254,
      "truck": 9255,
      "Ġsufficient": 9256,
      "inity": 9257,
      "olley": 9258,
      "Ġmayor": 9259,
      "Ġrefuse": 9260,
      "uled": 9261,
      "Ġ500": 9262,
      "eanwhile": 9263,
      "before": 9264,
      "Ġdisg": 9265,
      "Ġdrill": 9266,
      "Ġthreatened": 9267,
      "Ġdried": 9268,
      "olate": 9269,
      "Ġsacred": 9270,
      "sar": 9271,
      "alling": 9272,
      "bee": 9273,
      "Ġwinds": 9274,
      "Ġpackage": 9275,
      "ĠLincoln": 9276,
      "VI": 9277,
      "Ġcharges": 9278,
      "Stand": 9279,
      "Ġfires": 9280,
      "Ġfetch": 9281,
      "Ġprior": 9282,
      "Ġestim": 9283,
      "Ġcanton": 9284,
      "ĠMinn": 9285,
      "priate": 9286,
      "Ġengineer": 9287,
      "Ġmadam": 9288,
      "everal": 9289,
      "ĠCharlotte": 9290,
      "Ġvillages": 9291,
      "vocalization": 9292,
      "Ã³n": 9293,
      "Ġcriminal": 9294,
      "HS": 9295,
      "acity": 9296,
      "akin": 9297,
      "Ġlawn": 9298,
      "hetic": 9299,
      "Aunt": 9300,
      "Ġpotato": 9301,
      "Ġarose": 9302,
      "ĠWalk": 9303,
      "ĠClass": 9304,
      "Ġdwell": 9305,
      "ĠSix": 9306,
      "ĠPL": 9307,
      "abor": 9308,
      "need": 9309,
      "Ġilleg": 9310,
      "Ġnecklace": 9311,
      "Ġnoon": 9312,
      "Black": 9313,
      "ĠRecords": 9314,
      "Int": 9315,
      "Ġrattle": 9316,
      "force": 9317,
      "otted": 9318,
      "ĠARE": 9319,
      "Ġawfully": 9320,
      "Ġ1964": 9321,
      "ĠPatrick": 9322,
      "ĠPoland": 9323,
      "pher": 9324,
      "Ġstays": 9325,
      ";\"": 9326,
      "phew": 9327,
      "Ġtoe": 9328,
      "ĠFel": 9329,
      "fficer": 9330,
      "Ġwhale": 9331,
      "ĠGot": 9332,
      "Ġimpression": 9333,
      "Ġmysterious": 9334,
      "NE": 9335,
      "Ġbelly": 9336,
      "ĠStory": 9337,
      "jack": 9338,
      "arant": 9339,
      "Ġstared": 9340,
      "Ġburd": 9341,
      "Ġjungle": 9342,
      "Ġshared": 9343,
      "iently": 9344,
      "ĠDam": 9345,
      "Ġholy": 9346,
      "Ty": 9347,
      "ilton": 9348,
      "Ġenorm": 9349,
      "Ġdisag": 9350,
      "Ġdirections": 9351,
      "Ġatmosphere": 9352,
      "ipt": 9353,
      "Ġvisible": 9354,
      "55": 9355,
      "haw": 9356,
      "Ġmal": 9357,
      "umin": 9358,
      "orne": 9359,
      "Ġpoured": 9360,
      "ĠVen": 9361,
      "whines": 9362,
      "Ġdelivered": 9363,
      "ĠHeaven": 9364,
      "Ġfederal": 9365,
      "otal": 9366,
      "Ġmachines": 9367,
      "Ġemot": 9368,
      "Ġinstructions": 9369,
      "ĠRa": 9370,
      "Ġfilms": 9371,
      "omy": 9372,
      "ĠDE": 9373,
      "Ġwaving": 9374,
      "ĠTam": 9375,
      "chestra": 9376,
      "Ġcrept": 9377,
      "Ġpirates": 9378,
      "pat": 9379,
      "etic": 9380,
      "vention": 9381,
      "Ġanyhow": 9382,
      "Ġflies": 9383,
      "anges": 9384,
      "Ġanimated": 9385,
      "ĠAlso": 9386,
      "Ġdevice": 9387,
      "Ġlimit": 9388,
      "Ġfierce": 9389,
      "Ġexpert": 9390,
      "Ġdistricts": 9391,
      "ĠLabour": 9392,
      "Ġsteamer": 9393,
      "Ġtermin": 9394,
      "Ġ1967": 9395,
      "ĠBernard": 9396,
      "42": 9397,
      "bang": 9398,
      "Ġprime": 9399,
      "Ġparish": 9400,
      "Anne": 9401,
      "Ġcatching": 9402,
      "Ġintroduce": 9403,
      "ifferent": 9404,
      "ĠLewis": 9405,
      "Robert": 9406,
      "aunt": 9407,
      "Ġexceed": 9408,
      "Ġloads": 9409,
      "lap": 9410,
      "Ġoo": 9411,
      "Ġstout": 9412,
      "ĠBuck": 9413,
      "Ġperman": 9414,
      "reading": 9415,
      "Ġmultiple": 9416,
      "Co": 9417,
      "oting": 9418,
      "Ġhated": 9419,
      "Ġextended": 9420,
      "riscilla": 9421,
      "Lara": 9422,
      "jump": 9423,
      "oused": 9424,
      "holding": 9425,
      "ĠPercy": 9426,
      "UL": 9427,
      "ĠBroad": 9428,
      "OUN": 9429,
      "Ġdevil": 9430,
[...]
